{
  "version": "1.0",
  "truncation": null,
  "padding": null,
  "added_tokens": [
    {
      "id": 0,
      "content": "[INST]",
      "single_word": false,
      "lstrip": false,
      "rstrip": false,
      "normalized": false,
      "special": true
    },
    {
      "id": 1,
      "content": "[/INST]",
      "single_word": false,
      "lstrip": false,
      "rstrip": false,
      "normalized": false,
      "special": true
    },
    {
      "id": 2,
      "content": "[UNK]",
      "single_word": false,
      "lstrip": false,
      "rstrip": false,
      "normalized": false,
      "special": true
    }
  ],
  "normalizer": null,
  "pre_tokenizer": {
    "type": "ByteLevel",
    "add_prefix_space": true,
    "trim_offsets": true,
    "use_regex": true
  },
  "post_processor": null,
  "decoder": {
    "type": "ByteLevel",
    "add_prefix_space": true,
    "trim_offsets": true,
    "use_regex": true
  },
  "model": {
    "type": "BPE",
    "dropout": null,
    "unk_token": "[UNK]",
    "continuing_subword_prefix": null,
    "end_of_word_suffix": null,
    "fuse_unk": false,
    "byte_fallback": false,
    "ignore_merges": false,
    "vocab": {
      "[INST]": 0,
      "[/INST]": 1,
      "[UNK]": 2,
      "!": 3,
      "\"": 4,
      "'": 5,
      "(": 6,
      ")": 7,
      "*": 8,
      ",": 9,
      "-": 10,
      ".": 11,
      "/": 12,
      "0": 13,
      "1": 14,
      "3": 15,
      ":": 16,
      ";": 17,
      "<": 18,
      ">": 19,
      "?": 20,
      "A": 21,
      "B": 22,
      "C": 23,
      "D": 24,
      "E": 25,
      "F": 26,
      "G": 27,
      "H": 28,
      "I": 29,
      "J": 30,
      "K": 31,
      "L": 32,
      "M": 33,
      "N": 34,
      "O": 35,
      "P": 36,
      "Q": 37,
      "R": 38,
      "S": 39,
      "T": 40,
      "U": 41,
      "V": 42,
      "W": 43,
      "X": 44,
      "Y": 45,
      "Z": 46,
      "[": 47,
      "]": 48,
      "_": 49,
      "`": 50,
      "a": 51,
      "b": 52,
      "c": 53,
      "d": 54,
      "e": 55,
      "f": 56,
      "g": 57,
      "h": 58,
      "i": 59,
      "j": 60,
      "k": 61,
      "l": 62,
      "m": 63,
      "n": 64,
      "o": 65,
      "p": 66,
      "q": 67,
      "r": 68,
      "s": 69,
      "t": 70,
      "u": 71,
      "v": 72,
      "w": 73,
      "x": 74,
      "y": 75,
      "z": 76,
      "¦": 77,
      "§": 78,
      "©": 79,
      "¬": 80,
      "°": 81,
      "±": 82,
      "´": 83,
      "µ": 84,
      "¶": 85,
      "Â": 86,
      "Ã": 87,
      "Ð": 88,
      "Ø": 89,
      "â": 90,
      "å": 91,
      "æ": 92,
      "è": 93,
      "ì": 94,
      "Ġ": 95,
      "Ģ": 96,
      "Ī": 97,
      "Ĭ": 98,
      "ĭ": 99,
      "Į": 100,
      "Ĳ": 101,
      "ĳ": 102,
      "ĵ": 103,
      "Ķ": 104,
      "ĺ": 105,
      "Ļ": 106,
      "ľ": 107,
      "Ŀ": 108,
      "ŀ": 109,
      "Ł": 110,
      "ł": 111,
      "Ń": 112,
      "Ġt": 113,
      "in": 114,
      "Ġa": 115,
      "Ġs": 116,
      "ST": 117,
      "IN": 118,
      "INST": 119,
      "Ġ[": 120,
      "he": 121,
      "Ġw": 122,
      "ou": 123,
      "Ġf": 124,
      "ing": 125,
      "es": 126,
      "Ġc": 127,
      "nd": 128,
      "re": 129,
      "Ġi": 130,
      "ha": 131,
      "Ġm": 132,
      "er": 133,
      "Ġb": 134,
      "ĠI": 135,
      "ee": 136,
      "Ġto": 137,
      "an": 138,
      "Ġ[/": 139,
      "Ġthe": 140,
      "or": 141,
      "Ġd": 142,
      "Ġl": 143,
      "Ġand": 144,
      "on": 145,
      "Ġfee": 146,
      "Ġfeel": 147,
      "en": 148,
      "ll": 149,
      "Ġp": 150,
      "it": 151,
      "ay": 152,
      "Ġcan": 153,
      "Ġth": 154,
      "om": 155,
      "ea": 156,
      "Ġu": 157,
      "hat": 158,
      "et": 159,
      "Ġis": 160,
      "Ġit": 161,
      "Ġn": 162,
      "le": 163,
      "Ġo": 164,
      "Ġy": 165,
      "st": 166,
      "Ġyou": 167,
      "at": 168,
      "Ġin": 169,
      "ow": 170,
      "Ġe": 171,
      "ke": 172,
      "Ġha": 173,
      "is": 174,
      "out": 175,
      "gh": 176,
      "Ġhe": 177,
      "Ġh": 178,
      "Ġg": 179,
      "Ġli": 180,
      "ver": 181,
      "Ġbe": 182,
      "Ġwe": 183,
      "ve": 184,
      "al": 185,
      "Ġre": 186,
      "Ġma": 187,
      "se": 188,
      "ght": 189,
      "our": 190,
      "Ġof": 191,
      "ic": 192,
      "im": 193,
      "ly": 194,
      "ar": 195,
      "op": 196,
      "Ġthat": 197,
      "ct": 198,
      "ĠY": 199,
      "Ġour": 200,
      "ut": 201,
      "ld": 202,
      "oo": 203,
      "Ġab": 204,
      "ĠIt": 205,
      "ings": 206,
      "Ġabout": 207,
      "ĠYes": 208,
      "Ġfor": 209,
      "ot": 210,
      "Ġst": 211,
      "all": 212,
      "Ġwhe": 213,
      "Ġdo": 214,
      "Ġwhen": 215,
      "Ġsom": 216,
      "Ġsu": 217,
      "ĠT": 218,
      "pp": 219,
      "lp": 220,
      "Ġhelp": 221,
      "ind": 222,
      "Ġus": 223,
      "very": 224,
      "her": 225,
      "ess": 226,
      "ink": 227,
      "nder": 228,
      "ri": 229,
      "ter": 230,
      "Ġthink": 231,
      "ul": 232,
      "ad": 233,
      "Ġsee": 234,
      "ed": 235,
      "ion": 236,
      "Ġlike": 237,
      "ore": 238,
      "Ġso": 239,
      "oy": 240,
      "ould": 241,
      "ch": 242,
      "Ġhow": 243,
      "Ġj": 244,
      "ent": 245,
      "ir": 246,
      "ally": 247,
      "ust": 248,
      "ound": 249,
      "Ġon": 250,
      "ear": 251,
      "ith": 252,
      "Ġwith": 253,
      "ful": 254,
      "id": 255,
      "ce": 256,
      "ĠThat": 257,
      "Ġnot": 258,
      "ant": 259,
      "ort": 260,
      "fe": 261,
      "eop": 262,
      "eople": 263,
      "imes": 264,
      "Ġmore": 265,
      "ood": 266,
      "Ġpeople": 267,
      "ays": 268,
      "pe": 269,
      "Ġhapp": 270,
      "Ġen": 271,
      "ng": 272,
      "Ġevery": 273,
      "Ġun": 274,
      "Ġme": 275,
      "Ġbut": 276,
      "Ġmake": 277,
      "Ġmak": 278,
      "Ġmy": 279,
      "ring": 280,
      "Ġsomet": 281,
      "ĠD": 282,
      "and": 283,
      "Ġk": 284,
      "ther": 285,
      "Ġtr": 286,
      "Ġare": 287,
      "day": 288,
      "ĠH": 289,
      "Ġwor": 290,
      "Ġr": 291,
      "Ġbet": 292,
      "Ġunder": 293,
      "Ġthings": 294,
      "ci": 295,
      "ill": 296,
      "hing": 297,
      "ĠDo": 298,
      "qu": 299,
      "mp": 300,
      "Ġfr": 301,
      "stand": 302,
      "Ġbetter": 303,
      "Ġunderstand": 304,
      "Ġpl": 305,
      "Ġthis": 306,
      "one": 307,
      "Ġcha": 308,
      "Ġsh": 309,
      "Ġcom": 310,
      "Ġtoday": 311,
      "reat": 312,
      "Ġreally": 313,
      "Ġsound": 314,
      "joy": 315,
      "Ġenjoy": 316,
      "right": 317,
      "Ġmakes": 318,
      "Ġfind": 319,
      "Ġal": 320,
      "king": 321,
      "Ġfeelings": 322,
      "Ġimp": 323,
      "ope": 324,
      "Ġthey": 325,
      "Ġsome": 326,
      "Ġqu": 327,
      "ite": 328,
      "Ġne": 329,
      "Ġex": 330,
      "ĠW": 331,
      "ight": 332,
      "Ġsounds": 333,
      "ble": 334,
      "Ġan": 335,
      "ell": 336,
      "ove": 337,
      "ol": 338,
      "Ġhope": 339,
      "ies": 340,
      "Ġgood": 341,
      "Ġhave": 342,
      "any": 343,
      "Ġseem": 344,
      "Ġsha": 345,
      "ime": 346,
      "ions": 347,
      "ain": 348,
      "Ġsad": 349,
      "as": 350,
      "Ġwo": 351,
      "Ġwonder": 352,
      "ure": 353,
      "Ġsometimes": 354,
      "Ġwh": 355,
      "Ġsm": 356,
      "un": 357,
      "Ġtime": 358,
      "ice": 359,
      "ting": 360,
      "Ġout": 361,
      "Ġhar": 362,
      "Ġyour": 363,
      "Ġor": 364,
      "Ġjust": 365,
      "peci": 366,
      "Ġchang": 367,
      "Ġday": 368,
      "Ġwill": 369,
      "get": 370,
      "Ġway": 371,
      "Ġdi": 372,
      "Ġev": 373,
      "au": 374,
      "Ġpr": 375,
      "ents": 376,
      "Ġsur": 377,
      "pr": 378,
      "are": 379,
      "Ġdis": 380,
      "Ġfear": 381,
      "Ġsp": 382,
      "Ġjoy": 383,
      "eep": 384,
      "Ġhard": 385,
      "Ġcon": 386,
      "Ġat": 387,
      "ide": 388,
      "eas": 389,
      "Ġvery": 390,
      "Ġtheir": 391,
      "Ġfeeling": 392,
      "Ġsa": 393,
      "Ġother": 394,
      "us": 395,
      "Ġimport": 396,
      "ello": 397,
      "ĠHello": 398,
      "Ġag": 399,
      "Ġtal": 400,
      "ffe": 401,
      "ac": 402,
      "ten": 403,
      "Ġif": 404,
      "Ġcould": 405,
      "ry": 406,
      "ong": 407,
      "ur": 408,
      "Ġfeels": 409,
      "gether": 410,
      "ose": 411,
      "Ġimportant": 412,
      "os": 413,
      "Ġhappy": 414,
      "Ġstr": 415,
      "Ġta": 416,
      "Ġeven": 417,
      "Ġam": 418,
      "pris": 419,
      "ness": 420,
      "Ġsurpris": 421,
      "Ġtogether": 422,
      "Ġoften": 423,
      "Ġmany": 424,
      "ely": 425,
      "ĠS": 426,
      "Ġmom": 427,
      "Ġlove": 428,
      "Ġthou": 429,
      "Ġthere": 430,
      "Ġall": 431,
      "Ġes": 432,
      "Ġbright": 433,
      "ge": 434,
      "ause": 435,
      "Ġeveryone": 436,
      "Ġar": 437,
      "Ġnew": 438,
      "Ġwhat": 439,
      "Ġbec": 440,
      "Ġas": 441,
      "av": 442,
      "pecially": 443,
      "Ġespecially": 444,
      "ish": 445,
      "Ġthought": 446,
      "Ġshould": 447,
      "Ġnice": 448,
      "Ġup": 449,
      "Ġdays": 450,
      "side": 451,
      "ive": 452,
      "Ġbit": 453,
      "Ġdoes": 454,
      "th": 455,
      "ves": 456,
      "ook": 457,
      "ead": 458,
      "ree": 459,
      "Ġbring": 460,
      "Ġkeep": 461,
      "Ġwould": 462,
      "Ġcl": 463,
      "eed": 464,
      "thing": 465,
      "Ġquite": 466,
      "ways": 467,
      "Ġmoments": 468,
      "Ġalways": 469,
      "ren": 470,
      "ĠA": 471,
      "eather": 472,
      "Ġwant": 473,
      "ough": 474,
      "able": 475,
      "Ġcreat": 476,
      "ard": 477,
      "Ġchange": 478,
      "Ġsun": 479,
      "ĠM": 480,
      "Ġbecause": 481,
      "Ġsmall": 482,
      "Ġgo": 483,
      "Ġhelps": 484,
      "Ġea": 485,
      "Ġweather": 486,
      "Ġid": 487,
      "ie": 488,
      "art": 489,
      "Ġthese": 490,
      "Ġmight": 491,
      "Ġseems": 492,
      "Ġmu": 493,
      "Ġfun": 494,
      "Ġfrom": 495,
      "Ġsuch": 496,
      "Ġthem": 497,
      "fort": 498,
      "il": 499,
      "lect": 500,
      "act": 501,
      "ick": 502,
      "Ġeverything": 503,
      "rat": 504,
      "Ġtoo": 505,
      "Ġsomething": 506,
      "Ġact": 507,
      "Ġthose": 508,
      "me": 509,
      "Ġmuch": 510,
      "pect": 511,
      "Ġlife": 512,
      "est": 513,
      "ue": 514,
      "Ġtalk": 515,
      "Ġbad": 516,
      "flect": 517,
      "ark": 518,
      "Ġnat": 519,
      "ast": 520,
      "Ġtry": 521,
      "Ġsc": 522,
      "ace": 523,
      "ers": 524,
      "Ġwish": 525,
      "pl": 526,
      "end": 527,
      "Ġothers": 528,
      "fferen": 529,
      "tle": 530,
      "Ġpro": 531,
      "Ġlit": 532,
      "Ġdifferen": 533,
      "Ġagree": 534,
      "Ġoutside": 535,
      "Ġaround": 536,
      "Ġgreat": 537,
      "Ġbr": 538,
      "Ġang": 539,
      "ig": 540,
      "lean": 541,
      "ile": 542,
      "Ġdu": 543,
      "ories": 544,
      "ect": 545,
      "ate": 546,
      "Ġplan": 547,
      "ustrat": 548,
      "Ġfrustrat": 549,
      "Ġover": 550,
      "Ġlittle": 551,
      "bs": 552,
      "Ġneed": 553,
      "Ġpos": 554,
      "Ġcare": 555,
      "han": 556,
      "Ġde": 557,
      "ĠWhat": 558,
      "Ġch": 559,
      "ft": 560,
      "iness": 561,
      "Ġshare": 562,
      "now": 563,
      "riend": 564,
      "Ġv": 565,
      "'s": 566,
      "oc": 567,
      "Ġgr": 568,
      "orm": 569,
      "Ġbea": 570,
      "Ġfriend": 571,
      "Ġduring": 572,
      "ation": 573,
      "Ġlook": 574,
      "olut": 575,
      "Ġany": 576,
      "olutely": 577,
      "Ġtimes": 578,
      "ous": 579,
      "bsolutely": 580,
      "ĠAbsolutely": 581,
      "Ġclean": 582,
      "Ġwas": 583,
      "ity": 584,
      "hy": 585,
      "Ġstay": 586,
      "eri": 587,
      "Ġsurprising": 588,
      "Ġnature": 589,
      "ving": 590,
      "Ġbeaut": 591,
      "Ġhappen": 592,
      "ment": 593,
      "Ġheav": 594,
      "Ġwonderful": 595,
      "Ġless": 596,
      "arm": 597,
      "Ġget": 598,
      "be": 599,
      "its": 600,
      "ĠSom": 601,
      "'t": 602,
      "gust": 603,
      "Ġdisgust": 604,
      "Ġcreate": 605,
      "Ġaw": 606,
      "Ġidea": 607,
      "Ġways": 608,
      "Ġever": 609,
      "Ġnow": 610,
      "Ġfrustrating": 611,
      "Ġlight": 612,
      "ors": 613,
      "Ġinter": 614,
      "Ġfl": 615,
      "Ġmaking": 616,
      "Ġthoughts": 617,
      "Ġheavy": 618,
      "Ġright": 619,
      "iting": 620,
      "Ġco": 621,
      "Ġwork": 622,
      "ack": 623,
      "earn": 624,
      "iv": 625,
      "Ġby": 626,
      "ĠWhy": 627,
      "Ġsadness": 628,
      "Ġhappiness": 629,
      "Ġfood": 630,
      "Ġlovely": 631,
      "am": 632,
      "Ġknow": 633,
      "ier": 634,
      "Ġwarm": 635,
      "esting": 636,
      "lie": 637,
      "Ġangry": 638,
      "ĠSomet": 639,
      "ĠSometimes": 640,
      "Ġbig": 641,
      "mb": 642,
      "Ġapp": 643,
      "aybe": 644,
      "Ġposit": 645,
      "Ġlearn": 646,
      "flecting": 647,
      "Ġcomm": 648,
      "Ġaf": 649,
      "Ġsharing": 650,
      "Ġeach": 651,
      "Ġwhile": 652,
      "Ġmind": 653,
      "Ġlead": 654,
      "Ġfriends": 655,
      "Ġtake": 656,
      "Ġheal": 657,
      "Ġtough": 658,
      "Ġbelie": 659,
      "Ġsoon": 660,
      "ily": 661,
      "ff": 662,
      "Ġche": 663,
      "ine": 664,
      "ĠF": 665,
      "ds": 666,
      "Ġinteresting": 667,
      "Ġexp": 668,
      "ĠHow": 669,
      "ome": 670,
      "Ġdifferent": 671,
      "Ġcomfort": 672,
      "Ġwat": 673,
      "Ġsim": 674,
      "ms": 675,
      "Ġpositive": 676,
      "ĠE": 677,
      "set": 678,
      "Ġagain": 679,
      "ffect": 680,
      "Ġthan": 681,
      "Ġstrong": 682,
      "Ġkind": 683,
      "aces": 684,
      "Ġwal": 685,
      "Ġbelieve": 686,
      "mber": 687,
      "Ġlives": 688,
      "ange": 689,
      "Ġcal": 690,
      "Ġad": 691,
      "Ġcalm": 692,
      "nect": 693,
      "ps": 694,
      "Ġinst": 695,
      "Ġmem": 696,
      "member": 697,
      "ple": 698,
      "Ġres": 699,
      "Ġlift": 700,
      "Ġchanges": 701,
      "ult": 702,
      "ward": 703,
      "Ġconnect": 704,
      "Ġsafe": 705,
      "Ġfut": 706,
      "Ġbrings": 707,
      "Ġworld": 708,
      "Ġrel": 709,
      "ence": 710,
      "Ġwithout": 711,
      "Ġmo": 712,
      "Ġexperi": 713,
      "Ġfuture": 714,
      "ary": 715,
      "ĠR": 716,
      "Ġbeauti": 717,
      "ared": 718,
      "sel": 719,
      "own": 720,
      "âĢ": 721,
      "âĢĻ": 722,
      "age": 723,
      "ations": 724,
      "Ġdark": 725,
      "Ġspir": 726,
      "Ġhealth": 727,
      "Ġsit": 728,
      "so": 729,
      "ities": 730,
      "Ġalso": 731,
      "eal": 732,
      "ces": 733,
      "ag": 734,
      "Ġfears": 735,
      "Ġsupp": 736,
      "Ġtrue": 737,
      "Ġfoc": 738,
      "Ġinstead": 739,
      "Ġhas": 740,
      "Ġafter": 741,
      "ĠThe": 742,
      "Ġdid": 743,
      "Ġbeautiful": 744,
      "Ġmood": 745,
      "ny": 746,
      "Ġquick": 747,
      "de": 748,
      "ĠMany": 749,
      "Ġremember": 750,
      "Ġdown": 751,
      "ices": 752,
      "Ġmemories": 753,
      "Ġsimple": 754,
      "Ġrem": 755,
      "Ġtalking": 756,
      "Ġbeing": 757,
      "ert": 758,
      "Ġspeci": 759,
      "Ġstrange": 760,
      "eace": 761,
      "Ġdisc": 762,
      "Ġpeace": 763,
      "ull": 764,
      "Ġwhy": 765,
      "Ġaway": 766,
      "Ġspirits": 767,
      "Ġwell": 768,
      "Ġunc": 769,
      "Ġsk": 770,
      "ffic": 771,
      "iz": 772,
      "oom": 773,
      "Ġhear": 774,
      "reci": 775,
      "Ġeas": 776,
      "als": 777,
      "Ġgu": 778,
      "Ġop": 779,
      "Ġfocus": 780,
      "Ġspecial": 781,
      "Ġlat": 782,
      "whe": 783,
      "Ġcho": 784,
      "ich": 785,
      "Ġno": 786,
      "ave": 787,
      "ĠEx": 788,
      "Ġupset": 789,
      "Ġcol": 790,
      "Ġgrow": 791,
      "Ġscared": 792,
      "Ġdisgusted": 793,
      "Ġdr": 794,
      "Ġbrighter": 795,
      "Ġlong": 796,
      "actly": 797,
      "to": 798,
      "inding": 799,
      "Ġsupport": 800,
      "fficult": 801,
      "Ġdifficult": 802,
      "ist": 803,
      "ĠRe": 804,
      "Ġbl": 805,
      "Ġplay": 806,
      "Ġexpect": 807,
      "ise": 808,
      "Ġwhich": 809,
      "Ġappreci": 810,
      "ax": 811,
      "ild": 812,
      "ĠExactly": 813,
      "red": 814,
      "Ġsitu": 815,
      "Ġexc": 816,
      "Ġwalk": 817,
      "Ġgl": 818,
      "Ġworry": 819,
      "Ġpark": 820,
      "Ġaffect": 821,
      "Ġstill": 822,
      "esh": 823,
      "ooking": 824,
      "Ġproble": 825,
      "Ġquickly": 826,
      "Ġimpr": 827,
      "not": 828,
      "Ġshow": 829,
      "Ġworri": 830,
      "Ġuse": 831,
      "Ġheart": 832,
      "si": 833,
      "Ġclear": 834,
      "ĠFinding": 835,
      "Ġnorm": 836,
      "Ġrelax": 837,
      "Ġremind": 838,
      "Ġread": 839,
      "ance": 840,
      "Ġse": 841,
      "Ġstories": 842,
      "Ġnormal": 843,
      "Ġcommun": 844,
      "ening": 845,
      "Ġappreciate": 846,
      "urn": 847,
      "Ġunderstanding": 848,
      "Ġsaf": 849,
      "Ġtru": 850,
      "ĠC": 851,
      "Ġbu": 852,
      "ching": 853,
      "Ġfresh": 854,
      "Ġtruly": 855,
      "Ġrain": 856,
      "avor": 857,
      "oin": 858,
      "Ġinto": 859,
      "Ġmade": 860,
      "Ġlet": 861,
      "Ġactiv": 862,
      "Ġsen": 863,
      "Ġfearful": 864,
      "Ġsl": 865,
      "xt": 866,
      "Ġsunny": 867,
      "Ġthr": 868,
      "llen": 869,
      "een": 870,
      "Ġchallen": 871,
      "du": 872,
      "Ġwr": 873,
      "ĠMaybe": 874,
      "app": 875,
      "Ġideas": 876,
      "Ġwee": 877,
      "Ġscary": 878,
      "Ġair": 879,
      "Ġstart": 880,
      "Ġnight": 881,
      "ty": 882,
      "Ġbot": 883,
      "Ġcannot": 884,
      "Ġone": 885,
      "Ġplaces": 886,
      "Ġsense": 887,
      "ak": 888,
      "Ġchoices": 889,
      "Ġcome": 890,
      "ĠReflecting": 891,
      "Ġind": 892,
      "Ġfavor": 893,
      "Ġdon": 894,
      "Ġenv": 895,
      "iron": 896,
      "Ġimprove": 897,
      "Ġenviron": 898,
      "Ġguess": 899,
      "Ġreflect": 900,
      "Ġmess": 901,
      "Ġlist": 902,
      "Ġdifference": 903,
      "Ġnext": 904,
      "Ġthinking": 905,
      "ck": 906,
      "Ġfavorite": 907,
      "Ġcheer": 908,
      "ix": 909,
      "Ġtast": 910,
      "Ġactions": 911,
      "Ġchalleng": 912,
      "Ġback": 913,
      "Ġsomeone": 914,
      "Ġtea": 915,
      "Ġinside": 916,
      "Ġhaving": 917,
      "ertain": 918,
      "Ġenjoyable": 919,
      "az": 920,
      "Ġune": 921,
      "lic": 922,
      "Ġenvironment": 923,
      "Ġbo": 924,
      "pected": 925,
      "el": 926,
      "Ġcar": 927,
      "ety": 928,
      "Ġflow": 929,
      "ious": 930,
      "Ġunex": 931,
      "Ġmat": 932,
      "Ġcompl": 933,
      "Ġplace": 934,
      "Ġlast": 935,
      "Ġpre": 936,
      "fin": 937,
      "Ġproblems": 938,
      "kay": 939,
      "Ġactivities": 940,
      "Ġdes": 941,
      "wn": 942,
      "Ġokay": 943,
      "itely": 944,
      "fore": 945,
      "oud": 946,
      "Ġbefore": 947,
      "pend": 948,
      "finitely": 949,
      "Ġste": 950,
      "Ġreal": 951,
      "Ġexpl": 952,
      "Ġlately": 953,
      "Ġamaz": 954,
      "ĠL": 955,
      "Ġlea": 956,
      "Ġoff": 957,
      "mot": 958,
      "Ġfinding": 959,
      "Ġho": 960,
      "Ġcr": 961,
      "sh": 962,
      "Ġunexpected": 963,
      "ures": 964,
      "Ġreflecting": 965,
      "Ġsurprised": 966,
      "Ġspace": 967,
      "ences": 968,
      "Ġwind": 969,
      "ning": 970,
      "easant": 971,
      "Ġiss": 972,
      "Ġsol": 973,
      "Ġmaybe": 974,
      "Ġmay": 975,
      "Ġhappier": 976,
      "ĠYou": 977,
      "Ġisn": 978,
      "Ġanim": 979,
      "selves": 980,
      "Ġits": 981,
      "les": 982,
      "Ġinv": 983,
      "Ġsw": 984,
      "Ġthrough": 985,
      "Ġalone": 986,
      "sible": 987,
      "ling": 988,
      "eet": 989,
      "Ġhere": 990,
      "Ġamazing": 991,
      "Ġper": 992,
      "Ġnews": 993,
      "ĠHave": 994,
      "Ġcolors": 995,
      "Ġbeen": 996,
      "Ġlo": 997,
      "ĠP": 998,
      "ming": 999,
      "Ġsame": 1000,
      "Ġmis": 1001,
      "Ġminds": 1002,
      "Ġforward": 1003,
      "Ġstorm": 1004,
      "gg": 1005,
      "Ġbrighten": 1006,
      "Ġend": 1007,
      "hank": 1008,
      "ĠThank": 1009,
      "Ġdir": 1010,
      "Ġwa": 1011,
      "Ġexperiences": 1012,
      "Ġworries": 1013,
      "Ġbre": 1014,
      "Ġcomplet": 1015,
      "ass": 1016,
      "Ġcold": 1017,
      "shine": 1018,
      "ap": 1019,
      "Ġface": 1020,
      "Ġplans": 1021,
      "Ġfam": 1022,
      "ues": 1023,
      "Ġdeep": 1024,
      "Ġanger": 1025,
      "Ġenjoying": 1026,
      "Ġflowers": 1027,
      "Ġold": 1028,
      "Ġjoyful": 1029,
      "Ġunderstandable": 1030,
      "Ġemot": 1031,
      "vers": 1032,
      "Ġwho": 1033,
      "Ġgoing": 1034,
      "Ġbeauty": 1035,
      "Ġsaw": 1036,
      "Ġturn": 1037,
      "Ġcheerful": 1038,
      "Ġrec": 1039,
      "Ġsec": 1040,
      "Ġda": 1041,
      "Ġkindness": 1042,
      "Ġsunshine": 1043,
      "Ġanimals": 1044,
      "head": 1045,
      "Ġopen": 1046,
      "easy": 1047,
      "air": 1048,
      "whel": 1049,
      "Ġoverwhel": 1050,
      "Ġuneasy": 1051,
      "iet": 1052,
      "Ġsky": 1053,
      "Ġgard": 1054,
      "ory": 1055,
      "hes": 1056,
      "ully": 1057,
      "sing": 1058,
      "Ġahead": 1059,
      "Ġhad": 1060,
      "Ġatt": 1061,
      "Ġwater": 1062,
      "ical": 1063,
      "Ġexperience": 1064,
      "ize": 1065,
      "row": 1066,
      "Ġquiet": 1067,
      "Ġbuild": 1068,
      "Ġlearning": 1069,
      "Ġpat": 1070,
      "Ġboth": 1071,
      "ool": 1072,
      "ĠTh": 1073,
      "Ġhealthy": 1074,
      "Ġhappening": 1075,
      "Ġsituation": 1076,
      "Ġemotions": 1077,
      "Ġmeal": 1078,
      "Ġdiscus": 1079,
      "ks": 1080,
      "ffort": 1081,
      "Ġeffort": 1082,
      "Ġown": 1083,
      "Ġtre": 1084,
      "Ġmus": 1085,
      "Ġlot": 1086,
      "ked": 1087,
      "Ġconf": 1088,
      "Ġlooks": 1089,
      "oor": 1090,
      "igh": 1091,
      "Ġtaking": 1092,
      "ire": 1093,
      "Ġplant": 1094,
      "ang": 1095,
      "Ġsure": 1096,
      "Ġourselves": 1097,
      "Ġunk": 1098,
      "Ġgloom": 1099,
      "Ġdaily": 1100,
      "Ġexciting": 1101,
      "Ġstre": 1102,
      "Ġpic": 1103,
      "Ġman": 1104,
      "Ġissues": 1105,
      "Ġtrying": 1106,
      "Ġease": 1107,
      "Ġunpl": 1108,
      "ĠWe": 1109,
      "ts": 1110,
      "come": 1111,
      "Ġcause": 1112,
      "Ġjoys": 1113,
      "Ġnever": 1114,
      "ne": 1115,
      "Ġmoment": 1116,
      "Ġupsetting": 1117,
      "Ġnotic": 1118,
      "Ġhearts": 1119,
      "Ġcont": 1120,
      "cess": 1121,
      "Ġbus": 1122,
      "Ġlau": 1123,
      "ually": 1124,
      "Ġcommon": 1125,
      "Ġdirty": 1126,
      "Ġgarden": 1127,
      "Ġhand": 1128,
      "Ġav": 1129,
      "Ġwrong": 1130,
      "Ġlighten": 1131,
      "Ġgloomy": 1132,
      "aking": 1133,
      "Ġval": 1134,
      "round": 1135,
      "sp": 1136,
      "Ġspend": 1137,
      "gy": 1138,
      "Ġpast": 1139,
      "Ġbest": 1140,
      "Ġsafety": 1141,
      "Ġpain": 1142,
      "Ġyear": 1143,
      "Ġbook": 1144,
      "Ġsmell": 1145,
      "Ġcompletely": 1146,
      "fully": 1147,
      "Ġpart": 1148,
      "Ġpu": 1149,
      "gn": 1150,
      "Ġac": 1151,
      "Ġshin": 1152,
      "self": 1153,
      "Ġdec": 1154,
      "where": 1155,
      "Ġtri": 1156,
      "ows": 1157,
      "Ġmusic": 1158,
      "Ġbreak": 1159,
      "ake": 1160,
      "Ġvis": 1161,
      "Ġheard": 1162,
      "Ġweek": 1163,
      "Ġart": 1164,
      "Ġnoticed": 1165,
      "Ġcomp": 1166,
      "Ġhelpful": 1167,
      "Ġhome": 1168,
      "light": 1169,
      "Ġnear": 1170,
      "Ġconvers": 1171,
      "Ġloud": 1172,
      "mor": 1173,
      "oors": 1174,
      "Ġmove": 1175,
      "oose": 1176,
      "Ġdisgusting": 1177,
      "haps": 1178,
      "oun": 1179,
      "Ġfright": 1180,
      "ject": 1181,
      "Ġfix": 1182,
      "Ġsn": 1183,
      "Ġdoesn": 1184,
      "Ġcommunity": 1185,
      "Ġsurround": 1186,
      "den": 1187,
      "Ġdrink": 1188,
      "Ġwel": 1189,
      "Ġkeeping": 1190,
      "ash": 1191,
      "estion": 1192,
      "ouds": 1193,
      "Ġti": 1194,
      "Ġeasier": 1195,
      "Ġann": 1196,
      "Ġrespect": 1197,
      "Ġsmile": 1198,
      "Ġresp": 1199,
      "Ġhold": 1200,
      "Ġshows": 1201,
      "Ġclouds": 1202,
      "Ġfamily": 1203,
      "Ġannoy": 1204,
      "Ġoverwhelming": 1205,
      "Ġpers": 1206,
      "omfort": 1207,
      "Ġoutd": 1208,
      "ĠB": 1209,
      "ural": 1210,
      "Ġworse": 1211,
      "olve": 1212,
      "Ġsurprises": 1213,
      "Ġunf": 1214,
      "oid": 1215,
      "ip": 1216,
      "Ġru": 1217,
      "press": 1218,
      "ra": 1219,
      "Ġunpleasant": 1220,
      "Ġener": 1221,
      "acing": 1222,
      "Ġavoid": 1223,
      "Ġforget": 1224,
      "over": 1225,
      "Ġpossible": 1226,
      "Ġmust": 1227,
      "ign": 1228,
      "ments": 1229,
      "Ġexplore": 1230,
      "Ġlooking": 1231,
      "Ġadv": 1232,
      "Ġstress": 1233,
      "Ġdisapp": 1234,
      "Ġnatural": 1235,
      "Ġlost": 1236,
      "Ġyes": 1237,
      "Ġexpress": 1238,
      "Ġcooking": 1239,
      "Ġsituations": 1240,
      "Ġchallenges": 1241,
      "Ġstaying": 1242,
      "Ġusing": 1243,
      "Ġro": 1244,
      "Ġwast": 1245,
      "Ġcons": 1246,
      "Ġdist": 1247,
      "Ġsolut": 1248,
      "ating": 1249,
      "kes": 1250,
      "erv": 1251,
      "ons": 1252,
      "Ġmost": 1253,
      "Ġslow": 1254,
      "terday": 1255,
      "Ġdefinitely": 1256,
      "Ġanx": 1257,
      "Ġwise": 1258,
      "Ġstick": 1259,
      "ail": 1260,
      "Ġyesterday": 1261,
      "Ġadd": 1262,
      "Ġsafer": 1263,
      "Ġsurprise": 1264,
      "sed": 1265,
      "Ġtrees": 1266,
      "Ġenc": 1267,
      "Ġwatching": 1268,
      "Ġeverywhere": 1269,
      "Ġle": 1270,
      "Ġconc": 1271,
      "Ġfull": 1272,
      "Ġtas": 1273,
      "Ġspaces": 1274,
      "Ġel": 1275,
      "Ġinvolve": 1276,
      "Ġlisten": 1277,
      "Ġdiscuss": 1278,
      "li": 1279,
      "Ġstru": 1280,
      "Ġuncertain": 1281,
      "Ġwelcome": 1282,
      "Ġmean": 1283,
      "Ġstu": 1284,
      "Ġrespon": 1285,
      "Ġim": 1286,
      "Ġunw": 1287,
      "read": 1288,
      "Ġeffect": 1289,
      "Ġtomor": 1290,
      "Ġtomorrow": 1291,
      "duce": 1292,
      "dge": 1293,
      "Ġreading": 1294,
      "Ġwhere": 1295,
      "ĠThose": 1296,
      "Ġevents": 1297,
      "Ġplants": 1298,
      "ĠSt": 1299,
      "hang": 1300,
      "ab": 1301,
      "Ġenergy": 1302,
      "Ġcolor": 1303,
      "Ġpeaceful": 1304,
      "Ġseeing": 1305,
      "Ġhur": 1306,
      "Ġgets": 1307,
      "Ġinvolved": 1308,
      "Ġsurroundings": 1309,
      "ourage": 1310,
      "Ġtrou": 1311,
      "ems": 1312,
      "Ġdiscover": 1313,
      "ince": 1314,
      "Ġbir": 1315,
      "Ġdisappoin": 1316,
      "Ġign": 1317,
      "Ġsince": 1318,
      "Ġindeed": 1319,
      "Ġannoying": 1320,
      "Ġri": 1321,
      "Ġfrightening": 1322,
      "Ġlighter": 1323,
      "Ġju": 1324,
      "Ġsweet": 1325,
      "Ġinsp": 1326,
      "Ġwords": 1327,
      "Ġtreat": 1328,
      "Ġunfair": 1329,
      "Ġanxious": 1330,
      "form": 1331,
      "Ġplaying": 1332,
      "Ġimpact": 1333,
      "Ġtaste": 1334,
      "Ġdelic": 1335,
      "Ġtop": 1336,
      "res": 1337,
      "Ġprop": 1338,
      "Ġanyone": 1339,
      "Ġsay": 1340,
      "Ġaware": 1341,
      "Ġwere": 1342,
      "Ġuncomfort": 1343,
      "erious": 1344,
      "Ġhab": 1345,
      "Ġbusy": 1346,
      "alking": 1347,
      "ather": 1348,
      "Ġjour": 1349,
      "Ġrealize": 1350,
      "ets": 1351,
      "ĠDid": 1352,
      "Ġimag": 1353,
      "Ġwaiting": 1354,
      "Ġnotice": 1355,
      "Ġfacing": 1356,
      "Ġwaste": 1357,
      "fect": 1358,
      "ame": 1359,
      "ention": 1360,
      "Ġcertain": 1361,
      "ises": 1362,
      "less": 1363,
      "Ġwatch": 1364,
      "Ġchat": 1365,
      "Ġthank": 1366,
      "Ġbecome": 1367,
      "Ġdang": 1368,
      "Ġfel": 1369,
      "Ġfelt": 1370,
      "Ġreas": 1371,
      "Ġwarmth": 1372,
      "ney": 1373,
      "Ġbal": 1374,
      "Ġdeal": 1375,
      "Ġuncomfortable": 1376,
      "Ġshe": 1377,
      "Ġjourney": 1378,
      "Ġwalking": 1379,
      "ach": 1380,
      "Ġchallenging": 1381,
      "Ġdoing": 1382,
      "Ġmatter": 1383,
      "Ġpow": 1384,
      "oring": 1385,
      "iew": 1386,
      "kend": 1387,
      "Ġperfect": 1388,
      "Ġweekend": 1389,
      "ivity": 1390,
      "Ġtired": 1391,
      "Ġeasily": 1392,
      "Ġquestion": 1393,
      "aw": 1394,
      "Ġyet": 1395,
      "hed": 1396,
      "Ġsteps": 1397,
      "Ġones": 1398,
      "Ġproject": 1399,
      "raid": 1400,
      "oss": 1401,
      "Ġtakes": 1402,
      "mm": 1403,
      "Ġhopeful": 1404,
      "Ġgetting": 1405,
      "Ġlater": 1406,
      "Ġlistening": 1407,
      "ount": 1408,
      "Ġmov": 1409,
      "com": 1410,
      "Ġusually": 1411,
      "ract": 1412,
      "Ġref": 1413,
      "Ġrun": 1414,
      "Ġrest": 1415,
      "Ġignore": 1416,
      "Ġtoward": 1417,
      "Ġafraid": 1418,
      "Ġchoose": 1419,
      "Ġperson": 1420,
      "Ġcareful": 1421,
      "Ġspending": 1422,
      "blic": 1423,
      "ĠN": 1424,
      "Ġpublic": 1425,
      "ated": 1426,
      "Ġserious": 1427,
      "Ġlow": 1428,
      "Ġvisit": 1429,
      "Ġconcer": 1430,
      "Ġunkind": 1431,
      "Ġview": 1432,
      "hen": 1433,
      "ĠDe": 1434,
      "Ġstrugg": 1435,
      "ently": 1436,
      "Ġmeals": 1437,
      "Ġcomes": 1438,
      "Ġneeds": 1439,
      "Ġhabits": 1440,
      "ĠDefinitely": 1441,
      "Ġitems": 1442,
      "Ġunapp": 1443,
      "ghter": 1444,
      "Ġdri": 1445,
      "Ġmist": 1446,
      "Ġworried": 1447,
      "Ġtried": 1448,
      "Ġroom": 1449,
      "Ġreg": 1450,
      "Ġmar": 1451,
      "Ġhigh": 1452,
      "Ġsoft": 1453,
      "Ġtasks": 1454,
      "Ġmessy": 1455,
      "Ġmor": 1456,
      "Ġprot": 1457,
      "Ġstronger": 1458,
      "Ġmiss": 1459,
      "Ġmanage": 1460,
      "ade": 1461,
      "Ġstop": 1462,
      "ush": 1463,
      "Ġworking": 1464,
      "Ġtrash": 1465,
      "osp": 1466,
      "aying": 1467,
      "Ġneg": 1468,
      "Ġencourage": 1469,
      "ames": 1470,
      "Ġconnected": 1471,
      "Ġfo": 1472,
      "akes": 1473,
      "Ġseas": 1474,
      "Ġuni": 1475,
      "Ġhid": 1476,
      "Ġwin": 1477,
      "mmer": 1478,
      "Ġte": 1479,
      "Ġmix": 1480,
      "Ġcommunic": 1481,
      "Ġasking": 1482,
      "ular": 1483,
      "pes": 1484,
      "Ġbeha": 1485,
      "Ġpower": 1486,
      "ives": 1487,
      "Ġcur": 1488,
      "ider": 1489,
      "Ġeat": 1490,
      "Ġstory": 1491,
      "Ġweight": 1492,
      "Ġfru": 1493,
      "Ġfall": 1494,
      "Ġleave": 1495,
      "em": 1496,
      "Ġused": 1497,
      "Ġfound": 1498,
      "Ġadvent": 1499,
      "Ġear": 1500,
      "Ġbalance": 1501,
      "Ġkeeps": 1502,
      "Ġreduce": 1503,
      "Ġattention": 1504,
      "Ġhappens": 1505,
      "Ġcleaning": 1506,
      "Ġfocusing": 1507,
      "Ġbreat": 1508,
      "ket": 1509,
      "Ġstep": 1510,
      "Ġpol": 1511,
      "Ġgive": 1512,
      "other": 1513,
      "Ġcontr": 1514,
      "hange": 1515,
      "ew": 1516,
      "Ġrefres": 1517,
      "ĠTalking": 1518,
      "Ġsmoo": 1519,
      "Ġfir": 1520,
      "Ġdisappointing": 1521,
      "ĠO": 1522,
      "Ġsolutions": 1523,
      "Ġharder": 1524,
      "Ġproper": 1525,
      "ited": 1526,
      "Ġstorms": 1527,
      "Ġprep": 1528,
      "Ġbod": 1529,
      "Ġher": 1530,
      "Ġdog": 1531,
      "Ġfill": 1532,
      "Ġeasy": 1533,
      "Ġnoise": 1534,
      "Ġnoises": 1535,
      "Ġshining": 1536,
      "Ġtrick": 1537,
      "Ġoverall": 1538,
      "Ġmeet": 1539,
      "Ġoutdoors": 1540,
      "ict": 1541,
      "ken": 1542,
      "Ġelse": 1543,
      "gan": 1544,
      "Ġhandle": 1545,
      "oney": 1546,
      "Ġharm": 1547,
      "Ġclot": 1548,
      "Ġliving": 1549,
      "ru": 1550,
      "Ġinc": 1551,
      "Ġglad": 1552,
      "Ġdecis": 1553,
      "Ġconsider": 1554,
      "Ġchild": 1555,
      "Ġconversations": 1556,
      "Ġcontrol": 1557,
      "Ġdanger": 1558,
      "Ġcu": 1559,
      "ĠThere": 1560,
      "Ġlive": 1561,
      "Ġvi": 1562,
      "Ġhurt": 1563,
      "Ġfast": 1564,
      "Ġconnections": 1565,
      "Ġcoming": 1566,
      "Ġgre": 1567,
      "Ġfirst": 1568,
      "Ġhu": 1569,
      "sib": 1570,
      "iling": 1571,
      "ooked": 1572,
      "Ġput": 1573,
      "Ġmyself": 1574,
      "Ġcat": 1575,
      "Ġcomforting": 1576,
      "ĠTaking": 1577,
      "Ġchan": 1578,
      "Ġmorning": 1579,
      "Ġnegat": 1580,
      "Ġuniqu": 1581,
      "Ġwear": 1582,
      "Ġseen": 1583,
      "ual": 1584,
      "Ġgames": 1585,
      "Ġspread": 1586,
      "Ġdeeply": 1587,
      "Ġfin": 1588,
      "Ġconcern": 1589,
      "vi": 1590,
      "Ġmoney": 1591,
      "Ġinform": 1592,
      "Ġbro": 1593,
      "ips": 1594,
      "Ġwinter": 1595,
      "Ġpleasant": 1596,
      "idy": 1597,
      "Ġlaughter": 1598,
      "Ġreminds": 1599,
      "tions": 1600,
      "Ġshad": 1601,
      "Ġwet": 1602,
      "ics": 1603,
      "here": 1604,
      "Ġunique": 1605,
      "Ġsticky": 1606,
      "Ġreason": 1607,
      "Ġbehavi": 1608,
      "Ġanything": 1609,
      "Ġfunny": 1610,
      "Ġpath": 1611,
      "ock": 1612,
      "Ġcau": 1613,
      "Ġready": 1614,
      "Ġjoin": 1615,
      "Ġmon": 1616,
      "osing": 1617,
      "Ġfly": 1618,
      "Ġrefreshing": 1619,
      "using": 1620,
      "Ġpri": 1621,
      "Ġpict": 1622,
      "Ġprotect": 1623,
      "Ġstreng": 1624,
      "Ġblue": 1625,
      "Ġchoice": 1626,
      "Ġcarry": 1627,
      "Ġsmooth": 1628,
      "Ġtou": 1629,
      "Ġsummer": 1630,
      "Ġtidy": 1631,
      "Ġpass": 1632,
      "Ġcreating": 1633,
      "Ġinspire": 1634,
      "by": 1635,
      "Ġsecre": 1636,
      "Ġclose": 1637,
      "ealing": 1638,
      "Ġunexpectedly": 1639,
      "Ġenough": 1640,
      "Ġshared": 1641,
      "ality": 1642,
      "Ġlonger": 1643,
      "duc": 1644,
      "Ġorgan": 1645,
      "Ġfar": 1646,
      "Ġpract": 1647,
      "omes": 1648,
      "ĠSha": 1649,
      "Ġonce": 1650,
      "oup": 1651,
      "Ġpati": 1652,
      "Ġfree": 1653,
      "Ġeating": 1654,
      "Ġkit": 1655,
      "ger": 1656,
      "Ġrelaxed": 1657,
      "Ġruin": 1658,
      "ĠPer": 1659,
      "ĠInd": 1660,
      "Ġsnack": 1661,
      "eeting": 1662,
      "Ġgoes": 1663,
      "Ġdry": 1664,
      "ĠIndeed": 1665,
      "Ġdesign": 1666,
      "Ġtowards": 1667,
      "Ġwriting": 1668,
      "Ġcaring": 1669,
      "ervous": 1670,
      "Ġperhaps": 1671,
      "Ġnervous": 1672,
      "Ġteam": 1673,
      "Ġaffects": 1674,
      "sibil": 1675,
      "Ġimportance": 1676,
      "Ġaut": 1677,
      "mosp": 1678,
      "Ġatmosp": 1679,
      "Ġoptions": 1680,
      "Ġatmosphere": 1681,
      "ĠPerhaps": 1682,
      "Ġarea": 1683,
      "ven": 1684,
      "Ġspring": 1685,
      "Ġevent": 1686,
      "Ġyoung": 1687,
      "eat": 1688,
      "ines": 1689,
      "Ġpoor": 1690,
      "key": 1691,
      "under": 1692,
      "Ġdesp": 1693,
      "Ġpicn": 1694,
      "Ġcheck": 1695,
      "Ġbirds": 1696,
      "Ġcomfortable": 1697,
      "Ġlone": 1698,
      "Ġregular": 1699,
      "Ġonly": 1700,
      "Ġdespite": 1701,
      "ream": 1702,
      "Ġacc": 1703,
      "Ġwait": 1704,
      "Ġpoin": 1705,
      "Ġground": 1706,
      "Ġcope": 1707,
      "rp": 1708,
      "Ġshort": 1709,
      "Ġfrustration": 1710,
      "Ġhelping": 1711,
      "Ġcloud": 1712,
      "chen": 1713,
      "Ġsharp": 1714,
      "Ġkitchen": 1715,
      "ĠMy": 1716,
      "ener": 1717,
      "Ġsecure": 1718,
      "Ġcalming": 1719,
      "Ġstuck": 1720,
      "Ġcook": 1721,
      "Ġtasty": 1722,
      "Ġexcited": 1723,
      "Ġmoving": 1724,
      "ĠStaying": 1725,
      "Ġsleep": 1726,
      "Ġunclean": 1727,
      "Ġbroken": 1728,
      "ĠChange": 1729,
      "Ġthick": 1730,
      "Ġproblem": 1731,
      "Ġlaugh": 1732,
      "Ġmateri": 1733,
      "Ġmeeting": 1734,
      "pt": 1735,
      "ork": 1736,
      "opp": 1737,
      "Ġsoci": 1738,
      "Ġdelight": 1739,
      "Ġtroub": 1740,
      "Ġrough": 1741,
      "Ġtight": 1742,
      "llow": 1743,
      "ase": 1744,
      "ĠLet": 1745,
      "zy": 1746,
      "Ġbuilding": 1747,
      "Ġuns": 1748,
      "ature": 1749,
      "ond": 1750,
      "Ġmet": 1751,
      "Ġunknow": 1752,
      "esent": 1753,
      "Ġbloom": 1754,
      "Ġmovie": 1755,
      "Ġlooked": 1756,
      "Ġchildren": 1757,
      "ains": 1758,
      "Ġswim": 1759,
      "Ġbur": 1760,
      "ĠSharing": 1761,
      "Ġunknown": 1762,
      "Ġunset": 1763,
      "ĠTr": 1764,
      "Ġquality": 1765,
      "dd": 1766,
      "Ġleft": 1767,
      "coming": 1768,
      "fting": 1769,
      "Ġmed": 1770,
      "ĠIn": 1771,
      "Ġgrowth": 1772,
      "Ġshadows": 1773,
      "Ġproperly": 1774,
      "Ġtall": 1775,
      "Ġwanted": 1776,
      "Ġhop": 1777,
      "Ġalive": 1778,
      "ĠSome": 1779,
      "Ġcher": 1780,
      "Ġpref": 1781,
      "Ġbrightly": 1782,
      "Ġvalue": 1783,
      "tling": 1784,
      "Ġcozy": 1785,
      "Ġunt": 1786,
      "Ġreact": 1787,
      "Ġdelicious": 1788,
      "Ġexploring": 1789,
      "ized": 1790,
      "hips": 1791,
      "cts": 1792,
      "cessary": 1793,
      "Ġprefer": 1794,
      "Ġdelightful": 1795,
      "Ġclearly": 1796,
      "liness": 1797,
      "ife": 1798,
      "Ġunhe": 1799,
      "Ġconnection": 1800,
      "Ġleaves": 1801,
      "Ġrecently": 1802,
      "Ġreward": 1803,
      "Ġshake": 1804,
      "Ġbehavior": 1805,
      "Ġresponsible": 1806,
      "Ġlonely": 1807,
      "Ġrelaxing": 1808,
      "Ġopp": 1809,
      "Ġunsettling": 1810,
      "ules": 1811,
      "Ġpoint": 1812,
      "Ġunin": 1813,
      "Ġamong": 1814,
      "Ġdepend": 1815,
      "Ġfoods": 1816,
      "Ġconversation": 1817,
      "Ġmixed": 1818,
      "ouse": 1819,
      "ills": 1820,
      "cin": 1821,
      "Ġbooks": 1822,
      "Ġfas": 1823,
      "Ġfascin": 1824,
      "Ġcommunication": 1825,
      "Ġfre": 1826,
      "Ġanother": 1827,
      "astic": 1828,
      "Ġprocess": 1829,
      "Ġhouse": 1830,
      "Ġfascinating": 1831,
      "ned": 1832,
      "ledge": 1833,
      "Ġchanging": 1834,
      "ition": 1835,
      "lu": 1836,
      "Ġsnow": 1837,
      "vel": 1838,
      "Ġhat": 1839,
      "Ġstrength": 1840,
      "Ġroad": 1841,
      "Ġtool": 1842,
      "Ġdet": 1843,
      "Ġfact": 1844,
      "Ġdriving": 1845,
      "Ġrece": 1846,
      "Ġriver": 1847,
      "Ġsong": 1848,
      "Ġmeaning": 1849,
      "Ġunappealing": 1850,
      "ails": 1851,
      "Ġtrust": 1852,
      "Ġbringing": 1853,
      "Ġseason": 1854,
      "Ġconfid": 1855,
      "Ġdecisions": 1856,
      "Ġcurren": 1857,
      "Ġbeh": 1858,
      "ocking": 1859,
      "Ġnearby": 1860,
      "Ġbehind": 1861,
      "Ġheat": 1862,
      "Ġcolorful": 1863,
      "Ġsign": 1864,
      "redict": 1865,
      "ches": 1866,
      "Ġrules": 1867,
      "Ġsnacks": 1868,
      "Ġcurrent": 1869,
      "Ġlack": 1870,
      "Ġmoon": 1871,
      "Ġeduc": 1872,
      "Ġpicnic": 1873,
      "Ġyourself": 1874,
      "illy": 1875,
      "Ġbother": 1876,
      "ween": 1877,
      "Ġbetween": 1878,
      "Ġpay": 1879,
      "ĠNature": 1880,
      "Ġcreates": 1881,
      "Ġcherish": 1882,
      "Ġmistakes": 1883,
      "Ġsugg": 1884,
      "Ġthing": 1885,
      "Ġmoods": 1886,
      "Ġdam": 1887,
      "Ġindoors": 1888,
      "Ġgather": 1889,
      "Ġplanned": 1890,
      "Ġplanet": 1891,
      "Ġawareness": 1892,
      "Ġsecret": 1893,
      "Ġnothing": 1894,
      "Ġexpected": 1895,
      "Ġchance": 1896,
      "Ġsy": 1897,
      "ress": 1898,
      "Ġimagin": 1899,
      "Ġty": 1900,
      "Ġsil": 1901,
      "Ġcleaner": 1902,
      "Ġeveryday": 1903,
      "Ġcoll": 1904,
      "Ġhappened": 1905,
      "Ġgives": 1906,
      "Ġunwell": 1907,
      "izing": 1908,
      "Ġgener": 1909,
      "Ġrather": 1910,
      "Ġtouch": 1911,
      "ro": 1912,
      "der": 1913,
      "Ġtrave": 1914,
      "Ġpolit": 1915,
      "Ġissue": 1916,
      "Ġnegative": 1917,
      "Ġunp": 1918,
      "Ġcut": 1919,
      "Ġthough": 1920,
      "Ġred": 1921,
      "bor": 1922,
      "Ġaction": 1923,
      "Ġmatters": 1924,
      "rate": 1925,
      "Ġsea": 1926,
      "viting": 1927,
      "Ġemp": 1928,
      "Ġmonth": 1929,
      "bt": 1930,
      "Ġmedical": 1931,
      "Ġviol": 1932,
      "Ġdiscussions": 1933,
      "Ġjump": 1934,
      "ction": 1935,
      "iles": 1936,
      "Ġcond": 1937,
      "Ġloved": 1938,
      "erve": 1939,
      "Ġknowledge": 1940,
      "Ġtown": 1941,
      "Ġbigger": 1942,
      "Ġwindow": 1943,
      "Ġguide": 1944,
      "ĠG": 1945,
      "dden": 1946,
      "Ġstar": 1947,
      "ĠTrue": 1948,
      "Ġefforts": 1949,
      "Ġhist": 1950,
      "Ġhealthier": 1951,
      "Ġpo": 1952,
      "Ġtell": 1953,
      "Ġpatience": 1954,
      "Ġbitter": 1955,
      "Ġsudden": 1956,
      "Ġuninviting": 1957,
      "Ġris": 1958,
      "being": 1959,
      "Ġdraw": 1960,
      "ene": 1961,
      "Ġcommunities": 1962,
      "Ġrep": 1963,
      "Ġsmells": 1964,
      "amp": 1965,
      "Ġsho": 1966,
      "Ġoutdoor": 1967,
      "Ġfamil": 1968,
      "Ġtw": 1969,
      "Ġsociety": 1970,
      "Ġhot": 1971,
      "ries": 1972,
      "Ġsunlight": 1973,
      "used": 1974,
      "Ġspot": 1975,
      "Ġroo": 1976,
      "Ġdangerous": 1977,
      "ses": 1978,
      "bb": 1979,
      "Ġcleanliness": 1980,
      "Ġeng": 1981,
      "Ġbodies": 1982,
      "oke": 1983,
      "Ġcreativity": 1984,
      "Ġprodu": 1985,
      "work": 1986,
      "aging": 1987,
      "Ġhomes": 1988,
      "lf": 1989,
      "Ġclothes": 1990,
      "Ġappear": 1991,
      "Ġpolitical": 1992,
      "Ġvo": 1993,
      "Ġcuri": 1994,
      "Ġadventure": 1995,
      "Ġparks": 1996,
      "Ġstruggle": 1997,
      "Ġhor": 1998,
      "Ġcor": 1999,
      "Ġgame": 2000,
      "Ġadds": 2001,
      "Ġlosing": 2002,
      "Ġpresent": 2003,
      "chool": 2004,
      "Ġtrouble": 2005,
      "Ġoven": 2006,
      "Ġcool": 2007,
      "Ġdelicate": 2008,
      "Ġeducation": 2009,
      "Ġfruit": 2010,
      "Ġcreative": 2011,
      "Ġfilled": 2012,
      "ying": 2013,
      "Ġtools": 2014,
      "Ġret": 2015,
      "orth": 2016,
      "Ġhistory": 2017,
      "ale": 2018,
      "ost": 2019,
      "Ġinformation": 2020,
      "Ġschool": 2021,
      "Ġconfusing": 2022,
      "Ġsty": 2023,
      "ests": 2024,
      "Ġmaterials": 2025,
      "ĠHope": 2026,
      "Ġflat": 2027,
      "Ġfew": 2028,
      "Ġreci": 2029,
      "Ġupli": 2030,
      "sw": 2031,
      "Ġhidden": 2032,
      "Ġdust": 2033,
      "Ġorn": 2034,
      "Ġvalu": 2035,
      "ze": 2036,
      "Ġareas": 2037,
      "med": 2038,
      "Ġrout": 2039,
      "like": 2040,
      "Ġkey": 2041,
      "Ġcheap": 2042,
      "Ġnecessary": 2043,
      "Ġreturn": 2044,
      "ĠLife": 2045,
      "iring": 2046,
      "ĠWould": 2047,
      "Ġpap": 2048,
      "Ġdrinks": 2049,
      "Ġsmiles": 2050,
      "Ġflav": 2051,
      "Ġsand": 2052,
      "Ġbadness": 2053,
      "itions": 2054,
      "Ġload": 2055,
      "iss": 2056,
      "Ġfrustrated": 2057,
      "Ġstore": 2058,
      "ivid": 2059,
      "Ġprov": 2060,
      "Ġthemselves": 2061,
      "uel": 2062,
      "ĠU": 2063,
      "ought": 2064,
      "Ġdiscussing": 2065,
      "Ġdull": 2066,
      "Ġskin": 2067,
      "Ġsolid": 2068,
      "Ġflavors": 2069,
      "Ġcover": 2070,
      "Ġunpredict": 2071,
      "Ġwhole": 2072,
      "Ġappro": 2073,
      "Ġtopics": 2074,
      "ĠK": 2075,
      "Ġdead": 2076,
      "Ġmatch": 2077,
      "Ġmissing": 2078,
      "Ġpriv": 2079,
      "Ġequ": 2080,
      "Ġoffer": 2081,
      "ĠPeople": 2082,
      "Ġpersonal": 2083,
      "Ġthin": 2084,
      "Ġclos": 2085,
      "alse": 2086,
      "Ġblack": 2087,
      "Ġtree": 2088,
      "Ġey": 2089,
      "Ġpets": 2090,
      "Ġsurely": 2091,
      "ans": 2092,
      "Ġserv": 2093,
      "Ġfalse": 2094,
      "Ġresponsibil": 2095,
      "ages": 2096,
      "Ġgrass": 2097,
      "Ġsyst": 2098,
      "Ġrainy": 2099,
      "tain": 2100,
      "Ġpractice": 2101,
      "Ġill": 2102,
      "Ġcruel": 2103,
      "iff": 2104,
      "ĠThey": 2105,
      "Ġfight": 2106,
      "Ġfool": 2107,
      "Ġber": 2108,
      "cle": 2109,
      "Ġcareless": 2110,
      "Ġlitter": 2111,
      "Ġfarm": 2112,
      "Ġpositively": 2113,
      "Ġfoolish": 2114,
      "Ġansw": 2115,
      "ner": 2116,
      "Ġgrey": 2117,
      "chn": 2118,
      "look": 2119,
      "apt": 2120,
      "Ġce": 2121,
      "Ġjo": 2122,
      "Ġslowly": 2123,
      "Ġhearing": 2124,
      "Ġworks": 2125,
      "Ġhon": 2126,
      "Ġindivid": 2127,
      "Ġshines": 2128,
      "leb": 2129,
      "ishing": 2130,
      "hys": 2131,
      "Ġimagine": 2132,
      "Ġprivate": 2133,
      "Ġuntil": 2134,
      "Ġdear": 2135,
      "Ġsolution": 2136,
      "Ġstret": 2137,
      "Ġactivity": 2138,
      "Ġmarket": 2139,
      "Ġtechn": 2140,
      "Ġfore": 2141,
      "Ġstiff": 2142,
      "Ġlim": 2143,
      "Ġtrain": 2144,
      "Ġskills": 2145,
      "Ġtravel": 2146,
      "Ġbas": 2147,
      "Ġshine": 2148,
      "Ġenjoyed": 2149,
      "Ġsci": 2150,
      "Ġphys": 2151,
      "ens": 2152,
      "Ġlose": 2153,
      "Ġloose": 2154,
      "Ġpainting": 2155,
      "Ġeffective": 2156,
      "Ġwalks": 2157,
      "Ġgross": 2158,
      "Ġsight": 2159,
      "Ġopin": 2160,
      "Ġwide": 2161,
      "Ġwhite": 2162,
      "uals": 2163,
      "Ġdetails": 2164,
      "Ġmot": 2165,
      "Ġdistract": 2166,
      "Ġland": 2167,
      "Ġunpredictable": 2168,
      "par": 2169,
      "Ġceleb": 2170,
      "Ġpaint": 2171,
      "Ġcloser": 2172,
      "Ġteach": 2173,
      "Ġset": 2174,
      "Ġstressful": 2175,
      "Ġcomplete": 2176,
      "Ġtoy": 2177,
      "Ġbrave": 2178,
      "Ġthri": 2179,
      "ift": 2180,
      "Ġnar": 2181,
      "Ġspo": 2182,
      "Ġindividuals": 2183,
      "ivated": 2184,
      "Ġincre": 2185,
      "Ġmach": 2186,
      "Ġplanning": 2187,
      "Ġice": 2188,
      "ilar": 2189,
      "eak": 2190,
      "Ġawake": 2191,
      "Ġnarrow": 2192,
      "Ġcake": 2193,
      "Ġconcerns": 2194,
      "Ġca": 2195,
      "Ġsing": 2196,
      "ults": 2197,
      "Ġphysical": 2198,
      "Ġdamage": 2199,
      "Ġexcite": 2200,
      "ield": 2201,
      "Ġmil": 2202,
      "Ġsimilar": 2203,
      "Ġmeaningful": 2204,
      "Ġviolent": 2205,
      "Ġfish": 2206,
      "Ġdream": 2207,
      "Ġunus": 2208,
      "Ġburden": 2209,
      "Ġhang": 2210,
      "anc": 2211,
      "ĠRemember": 2212,
      "Ġdirt": 2213,
      "Ġleather": 2214,
      "Ġlively": 2215,
      "Ġbent": 2216,
      "Ġsuggest": 2217,
      "Ġtastes": 2218,
      "Ġhands": 2219,
      "Ġexcitement": 2220,
      "ĠBe": 2221,
      "Ġoverwhelmed": 2222,
      "Ġpowerful": 2223,
      "Ġtricky": 2224,
      "Ġfruits": 2225,
      "ial": 2226,
      "Ġleads": 2227,
      "Ġfair": 2228,
      "Ġburn": 2229,
      "Ġhonest": 2230,
      "Ġaccid": 2231,
      "ires": 2232,
      "Ġbreath": 2233,
      "Ġseek": 2234,
      "Ġpaper": 2235,
      "Ġskies": 2236,
      "night": 2237,
      "Ġable": 2238,
      "more": 2239,
      "Ġanymore": 2240,
      "Ġcompany": 2241,
      "oot": 2242,
      "Ġeffects": 2243,
      "ellow": 2244,
      "Ġunusual": 2245,
      "Ġmid": 2246,
      "Ġpictures": 2247,
      "Ġdislike": 2248,
      "Ġcurious": 2249,
      "Ġprom": 2250,
      "Ġfearfulness": 2251,
      "atic": 2252,
      "Ġpull": 2253,
      "Ġsoup": 2254,
      "um": 2255,
      "Ġthen": 2256,
      "ĠBeing": 2257,
      "ĠTo": 2258,
      "Ġcloudy": 2259,
      "Ġloss": 2260,
      "Ġfield": 2261,
      "Ġrelations": 2262,
      "ĠThis": 2263,
      "Ġpicture": 2264,
      "ppy": 2265,
      "Ġteaching": 2266,
      "Ġstand": 2267,
      "Ġpen": 2268,
      "Ġpress": 2269,
      "time": 2270,
      "Ġprev": 2271,
      "Ġmanag": 2272,
      "Ġhim": 2273,
      "opping": 2274,
      "Ġwinds": 2275,
      "Ġwar": 2276,
      "Ġunsure": 2277,
      "dle": 2278,
      "ids": 2279,
      "Ġfamilies": 2280,
      "bject": 2281,
      "Ġlessen": 2282,
      "Ġbreaks": 2283,
      "ison": 2284,
      "cious": 2285,
      "Ġloc": 2286,
      "Ġalong": 2287,
      "Ġadventures": 2288,
      "Ġmiddle": 2289,
      "Ġfollow": 2290,
      "Ġsmoke": 2291,
      "Ġtwist": 2292,
      "Ġunhelp": 2293,
      "Ġteamwork": 2294,
      "Ġpur": 2295,
      "Ġcertainly": 2296,
      "Ġbeach": 2297,
      "Ġtonight": 2298,
      "Ġlessons": 2299,
      "Ġcausing": 2300,
      "ĠMe": 2301,
      "Ġyellow": 2302,
      "Ġbody": 2303,
      "Ġfeeble": 2304,
      "Ġrequ": 2305,
      "Ġunhelpful": 2306,
      "Ġacce": 2307,
      "Ġside": 2308,
      "ĠSo": 2309,
      "Ġgent": 2310,
      "Ġdou": 2311,
      "Ġling": 2312,
      "Ġwearing": 2313,
      "Ġhum": 2314,
      "fit": 2315,
      "Ġspade": 2316,
      "Ġearth": 2317,
      "ances": 2318,
      "Ġfat": 2319,
      "irt": 2320,
      "Ġmovies": 2321,
      "Ġgot": 2322,
      "Ġsepar": 2323,
      "Ġprog": 2324,
      "ton": 2325,
      "Ġprepared": 2326,
      "Ġdishes": 2327,
      "Ġsmart": 2328,
      "Ġprepare": 2329,
      "Ġtroubles": 2330,
      "Ġgentle": 2331,
      "Ġhiding": 2332,
      "ĠHopefully": 2333,
      "Ġpaths": 2334,
      "Ġcarefully": 2335,
      "Ġflying": 2336,
      "rant": 2337,
      "Ġsuc": 2338,
      "Ġonto": 2339,
      "Ġhead": 2340,
      "Ġshape": 2341,
      "Ġelastic": 2342,
      "Ġfrequ": 2343,
      "ho": 2344,
      "Ġcreatures": 2345,
      "omatic": 2346,
      "ertile": 2347,
      "Ġconscious": 2348,
      "Ġbusiness": 2349,
      "Ġscience": 2350,
      "Ġgrowing": 2351,
      "Ġhair": 2352,
      "Ġperspect": 2353,
      "Ġunha": 2354,
      "rer": 2355,
      "Ġcity": 2356,
      "Ġprob": 2357,
      "Ġshoes": 2358,
      "Ġdress": 2359,
      "Ġworth": 2360,
      "Ġfertile": 2361,
      "ution": 2362,
      "Ġautomatic": 2363,
      "Ġdarkness": 2364,
      "ewel": 2365,
      "Ġempty": 2366,
      "Ġfem": 2367,
      "Ġconditions": 2368,
      "Ġknowing": 2369,
      "Ġlevel": 2370,
      "orry": 2371,
      "Ġcontin": 2372,
      "ca": 2373,
      "Ġopenly": 2374,
      "earer": 2375,
      "Ġjewel": 2376,
      "Ġbag": 2377,
      "Ġweigh": 2378,
      "Ġhanging": 2379,
      "ease": 2380,
      "Ġstud": 2381,
      "Ġwash": 2382,
      "Ġswimming": 2383,
      "Ġclearer": 2384,
      "Ġinse": 2385,
      "Ġmin": 2386,
      "Ġresults": 2387,
      "Ġfriendly": 2388,
      "Ġprojects": 2389,
      "Ġspark": 2390,
      "Ġneigh": 2391,
      "Ġsick": 2392,
      "Ġask": 2393,
      "olo": 2394,
      "Ġagainst": 2395,
      "Ġprevent": 2396,
      "Ġodd": 2397,
      "Ġgeneral": 2398,
      "hip": 2399,
      "Ġpush": 2400,
      "Ġneeded": 2401,
      "Ġcompan": 2402,
      "lier": 2403,
      "Ġtable": 2404,
      "ustom": 2405,
      "Ġroof": 2406,
      "ished": 2407,
      "Ġpar": 2408,
      "Ġseparate": 2409,
      "Ġpleas": 2410,
      "Ġprices": 2411,
      "Ġexpectations": 2412,
      "Ġdire": 2413,
      "ential": 2414,
      "Ġspirit": 2415,
      "Ġreflection": 2416,
      "Ġreach": 2417,
      "Ġthunder": 2418,
      "Ġpie": 2419,
      "stood": 2420,
      "Ġbat": 2421,
      "Ġfemale": 2422,
      "Ġadvice": 2423,
      "Ġsal": 2424,
      "Ġfire": 2425,
      "fic": 2426,
      "Ġwav": 2427,
      "Ġdig": 2428,
      "Ġprovide": 2429,
      "Ġforever": 2430,
      "Ġblooming": 2431,
      "Ġcustom": 2432,
      "Ġactually": 2433,
      "Ġunhappy": 2434,
      "Ġroll": 2435,
      "Ġsecond": 2436,
      "Ġboat": 2437,
      "Ġbelief": 2438,
      "Ġstom": 2439,
      "Ġcount": 2440,
      "erves": 2441,
      "Ġstomach": 2442,
      "Ġreco": 2443,
      "Ġlar": 2444,
      "ources": 2445,
      "Ġkn": 2446,
      "cape": 2447,
      "Ġbread": 2448,
      "Ġrewarding": 2449,
      "Ġgroup": 2450,
      "Ġequal": 2451,
      "Ġhealing": 2452,
      "Ġimpul": 2453,
      "ute": 2454,
      "Ġconst": 2455,
      "gin": 2456,
      "ĠTogether": 2457,
      "Ġinviting": 2458,
      "Ġsitting": 2459,
      "Ġviews": 2460,
      "Ġfacts": 2461,
      "Ġve": 2462,
      "Ġsnee": 2463,
      "Ġknot": 2464,
      "Ġmetho": 2465,
      "Ġmisunder": 2466,
      "Ġseasons": 2467,
      "Ġtechnolo": 2468,
      "Ġfocused": 2469,
      "Ġdeeper": 2470,
      "Ġbegin": 2471,
      "Ġtiring": 2472,
      "Ġresponsibility": 2473,
      "Ġhate": 2474,
      "Ġaccept": 2475,
      "Ġsystem": 2476,
      "Ġthrow": 2477,
      "Ġball": 2478,
      "Ġfriendships": 2479,
      "icer": 2480,
      "usion": 2481,
      "Ġblow": 2482,
      "Ġnicer": 2483,
      "Ġopinions": 2484,
      "Ġkids": 2485,
      "Ġoppos": 2486,
      "dg": 2487,
      "redi": 2488,
      "Ġawful": 2489,
      "Ġdone": 2490,
      "Ġwaves": 2491,
      "Ġnut": 2492,
      "Ġtrip": 2493,
      "Ġopposite": 2494,
      "Ġoverlook": 2495,
      "Ġusual": 2496,
      "Ġattract": 2497,
      "Ġchees": 2498,
      "Ġexist": 2499,
      "Ġsuddenly": 2500,
      "Ġstea": 2501,
      "Ġbond": 2502,
      "Ġinf": 2503,
      "Ġcollect": 2504,
      "Ġuseful": 2505,
      "Ġtest": 2506,
      "ery": 2507,
      "Ġreceip": 2508,
      "Ġuncertainty": 2509,
      "enc": 2510,
      "Ġwild": 2511,
      "Ġearlier": 2512,
      "Ġtricks": 2513,
      "Ġdependent": 2514,
      "Ġunderstood": 2515,
      "Ġpot": 2516,
      "Ġfixed": 2517,
      "Ġtran": 2518,
      "Ġshapes": 2519,
      "Ġorange": 2520,
      "Ġfalling": 2521,
      "Ġbreathe": 2522,
      "Ġarm": 2523,
      "Ġincrease": 2524,
      "ates": 2525,
      "Ġtechnology": 2526,
      "allel": 2527,
      "Ġdoubt": 2528,
      "Ġparallel": 2529,
      "Ġsorry": 2530,
      "Ġalm": 2531,
      "Ġsend": 2532,
      "Ġtransp": 2533,
      "hood": 2534,
      "Ġsilly": 2535,
      "Ġdifferently": 2536,
      "Ġunwel": 2537,
      "Ġbene": 2538,
      "Ġleast": 2539,
      "Ġsock": 2540,
      "Ġinflu": 2541,
      "Ġactive": 2542,
      "Ġvisiting": 2543,
      "bjects": 2544,
      "nings": 2545,
      "Ġrecipes": 2546,
      "Ġshopping": 2547,
      "Ġhour": 2548,
      "Ġwood": 2549,
      "Ġir": 2550,
      "angu": 2551,
      "Ġthoughtful": 2552,
      "ortun": 2553,
      "Ġuplifting": 2554,
      "Ġanimal": 2555,
      "Ġarri": 2556,
      "Ġchal": 2557,
      "Ġtroubling": 2558,
      "Ġliqu": 2559,
      "Ġshowing": 2560,
      "Ġrelationships": 2561,
      "Ġopportun": 2562,
      "Ġsongs": 2563,
      "Ġpurp": 2564,
      "Ġalmost": 2565,
      "Ġboiling": 2566,
      "Ġmisunderstand": 2567,
      "Ġins": 2568,
      "etizing": 2569,
      "Ġtypes": 2570,
      "rateful": 2571,
      "Ġcheese": 2572,
      "Ġdrain": 2573,
      "Ġsolve": 2574,
      "Ġconfident": 2575,
      "fits": 2576,
      "Ġproduce": 2577,
      "Ġlangu": 2578,
      "Ġdecor": 2579,
      "Ġstarts": 2580,
      "ĠKeep": 2581,
      "Ġtransport": 2582,
      "Ġstruggles": 2583,
      "Ġescape": 2584,
      "Ġunwelcoming": 2585,
      "Ġcompanies": 2586,
      "Ġdoor": 2587,
      "Ġclar": 2588,
      "Ġfrequent": 2589,
      "Ġhide": 2590,
      "Ġinformed": 2591,
      "Ġunmot": 2592,
      "Ġvar": 2593,
      "Ġeffectively": 2594,
      "ament": 2595,
      "Ġvoices": 2596,
      "Ġlifts": 2597,
      "Ġprogress": 2598,
      "Ġfully": 2599,
      "earning": 2600,
      "Ġarg": 2601,
      "Ġtips": 2602,
      "Ġmindful": 2603,
      "Ġornament": 2604,
      "Ġprobable": 2605,
      "Ġdrop": 2606,
      "Ġproducts": 2607,
      "Ġunmotivated": 2608,
      "Ġadding": 2609,
      "Ġbab": 2610,
      "ĠKeeping": 2611,
      "Ġmain": 2612,
      "Ġext": 2613,
      "Ġjudge": 2614,
      "Ġorganized": 2615,
      "Ġbel": 2616,
      "Ġwound": 2617,
      "Ġreasons": 2618,
      "Ġgrateful": 2619,
      "ĠLearning": 2620,
      "Ġunappetizing": 2621,
      "Ġcommunicate": 2622,
      "Ġrelie": 2623,
      "Ġstarting": 2624,
      "Ġbree": 2625,
      "Ġsear": 2626,
      "ried": 2627,
      "Ġdistance": 2628,
      "Ġvalid": 2629,
      "Ġfold": 2630,
      "Ġcomple": 2631,
      "Ġpressure": 2632,
      "ility": 2633,
      "Ġrecogn": 2634,
      "Ġdin": 2635,
      "Ġsuppose": 2636,
      "Ġmag": 2637,
      "Ġparts": 2638,
      "Ġclarity": 2639,
      "Ġcatch": 2640,
      "Ġblan": 2641,
      "comes": 2642,
      "gs": 2643,
      "Ġnote": 2644,
      "Ġremembering": 2645,
      "Ġimagination": 2646,
      "Ġcomplex": 2647,
      "Ġfinish": 2648,
      "Ġyears": 2649,
      "Ġtask": 2650,
      "Ġbothering": 2651,
      "oth": 2652,
      "Ġcalmness": 2653,
      "Ġletter": 2654,
      "Ġdogs": 2655,
      "Ġra": 2656,
      "Ġstretch": 2657,
      "Ġinclu": 2658,
      "Ġtreats": 2659,
      "Ġdesigns": 2660,
      "Ġcup": 2661,
      "Ġoutcomes": 2662,
      "Ġmyst": 2663,
      "Ġtax": 2664,
      "Ġaccidents": 2665,
      "Ġneighbor": 2666,
      "Ġimpulse": 2667,
      "Ġchanged": 2668,
      "Ġfil": 2669,
      "Ġreminding": 2670,
      "Ġfloor": 2671,
      "Ġstit": 2672,
      "eaking": 2673,
      "Ġhis": 2674,
      "Ġbird": 2675,
      "fortun": 2676,
      "Ġmethods": 2677,
      "Ġstays": 2678,
      "Ġbeliefs": 2679,
      "Ġinsects": 2680,
      "Ġdreams": 2681,
      "Ġess": 2682,
      "Ġbath": 2683,
      "Ġliquid": 2684,
      "Ġhollow": 2685,
      "Ġpurpose": 2686,
      "Ġveget": 2687,
      "Ġacts": 2688,
      "Ġbuy": 2689,
      "Ġovercome": 2690,
      "Ġopportunities": 2691,
      "Ġbed": 2692,
      "Ġmount": 2693,
      "Ġapproach": 2694,
      "Ġbuildings": 2695,
      "tern": 2696,
      "atis": 2697,
      "atisf": 2698,
      "Ġdisappoint": 2699,
      "Ġrunning": 2700,
      "vert": 2701,
      "Ġtray": 2702,
      "Ġseemed": 2703,
      "ever": 2704,
      "ĠSun": 2705,
      "Ġprose": 2706,
      "Ġhorn": 2707,
      "Ġshop": 2708,
      "ĠClean": 2709,
      "Ġessential": 2710,
      "ĠPl": 2711,
      "Ġlaw": 2712,
      "Ġsuccess": 2713,
      "utious": 2714,
      "Ġoffice": 2715,
      "Ġcautious": 2716,
      "Ġpossibil": 2717,
      "urb": 2718,
      "no": 2719,
      "Ġbutter": 2720,
      "Ġbreeze": 2721,
      "Ġlin": 2722,
      "Ġgreatly": 2723,
      "verse": 2724,
      "Ġlasting": 2725,
      "Ġcry": 2726,
      "Ġgreen": 2727,
      "Ġwall": 2728,
      "Ġadvert": 2729,
      "Ġprior": 2730,
      "Ġconfidence": 2731,
      "Ġpoll": 2732,
      "Ġflavor": 2733,
      "Ġallows": 2734,
      "Ġdel": 2735,
      "Ġgoals": 2736,
      "Ġtreas": 2737,
      "entions": 2738,
      "ĠEvery": 2739,
      "Ġadapt": 2740,
      "Ġmap": 2741,
      "Ġsail": 2742,
      "Ġevening": 2743,
      "Ġnegativity": 2744,
      "Ġcompet": 2745,
      "Ġtoys": 2746,
      "Ġhappily": 2747,
      "uth": 2748,
      "Ġdecision": 2749,
      "Ġvaluable": 2750,
      "Ġcauses": 2751,
      "Ġchilly": 2752,
      "Ġrice": 2753,
      "Ġvib": 2754,
      "Ġunfortun": 2755,
      "Ġsailing": 2756,
      "Ġdeserve": 2757,
      "Ġreceipt": 2758,
      "Ġlearned": 2759,
      "Ġbaking": 2760,
      "Ġcost": 2761,
      "Ġchalk": 2762,
      "Ġsmoothly": 2763,
      "Ġband": 2764,
      "Ġtopic": 2765,
      "land": 2766,
      "Ġlights": 2767,
      "Ġbra": 2768,
      "Ġhopes": 2769,
      "Ġcrow": 2770,
      "Ġchallenge": 2771,
      "Ġself": 2772,
      "Ġing": 2773,
      "ables": 2774,
      "Ġhoping": 2775,
      "Ġconstant": 2776,
      "ĠFee": 2777,
      "ĠIs": 2778,
      "Ġingredi": 2779,
      "Ġrange": 2780,
      "fill": 2781,
      "Ġcomb": 2782,
      "Ġform": 2783,
      "ering": 2784,
      "Ġflight": 2785,
      "Ġdisturb": 2786,
      "Ġfaces": 2787,
      "eath": 2788,
      "Ġargu": 2789,
      "Ġcustomers": 2790,
      "Ġlanguage": 2791,
      "bbies": 2792,
      "Ġcult": 2793,
      "ital": 2794,
      "Ġstate": 2795,
      "Ġcontinue": 2796,
      "Ġoce": 2797,
      "Ġworrying": 2798,
      "Ġtruth": 2799,
      "Ġburst": 2800,
      "ides": 2801,
      "Ġfriendship": 2802,
      "Ġbox": 2803,
      "Ġsteam": 2804,
      "Ġextra": 2805,
      "rib": 2806,
      "Ġmemory": 2807,
      "Ġsafely": 2808,
      "Ġminute": 2809,
      "Ġbelong": 2810,
      "Ġkinds": 2811,
      "Ġsatisf": 2812,
      "Ġbran": 2813,
      "Ġchances": 2814,
      "ĠFoc": 2815,
      "Ġadvertise": 2816,
      "Ġhobbies": 2817,
      "Ġvegetables": 2818,
      "just": 2819,
      "Ġdangers": 2820,
      "Ġabove": 2821,
      "Ġwis": 2822,
      "Ġmarried": 2823,
      "Ġfit": 2824,
      "Ġshirt": 2825,
      "bst": 2826,
      "Ġcrack": 2827,
      "Ġmisunderstandings": 2828,
      "Ġshut": 2829,
      "Ġemb": 2830,
      "thy": 2831,
      "Ġinstru": 2832,
      "Ġsimpl": 2833,
      "Ġcard": 2834,
      "Ġcree": 2835,
      "Ġservice": 2836,
      "Ġrecent": 2837,
      "Ġpop": 2838,
      "Ġisland": 2839,
      "overed": 2840,
      "uck": 2841,
      "Ġpump": 2842,
      "ipp": 2843,
      "Ġclock": 2844,
      "aged": 2845,
      "Ġchec": 2846,
      "Ġph": 2847,
      "ĠFocusing": 2848,
      "Ġbecomes": 2849,
      "ycle": 2850,
      "ĠCooking": 2851,
      "Ġreceive": 2852,
      "ĠLosing": 2853,
      "ched": 2854,
      "Ġstamp": 2855,
      "Ġsug": 2856,
      "iety": 2857,
      "Ġtemp": 2858,
      "essed": 2859,
      "Ġspreading": 2860,
      "Ġfaster": 2861,
      "Ġlocal": 2862,
      "Ġeyes": 2863,
      "Ġspeak": 2864,
      "Ġgardens": 2865,
      "Ġens": 2866,
      "Ġlimit": 2867,
      "Ġimprovements": 2868,
      "velop": 2869,
      "Ġmilk": 2870,
      "Ġorder": 2871,
      "Ġglass": 2872,
      "ont": 2873,
      "Ġorganiz": 2874,
      "Ġpositivity": 2875,
      "ss": 2876,
      "Ġwine": 2877,
      "Ġpropert": 2878,
      "ores": 2879,
      "Ġwent": 2880,
      "ding": 2881,
      "otton": 2882,
      "Ġallow": 2883,
      "itu": 2884,
      "Ġshift": 2885,
      "Ġwarmer": 2886,
      "ĠSee": 2887,
      "Ġrelief": 2888,
      "Ġingredients": 2889,
      "ĠFeeling": 2890,
      "Ġhuman": 2891,
      "Ġpet": 2892,
      "chie": 2893,
      "Ġmachines": 2894,
      "Ġpin": 2895,
      "Ġimpro": 2896,
      "Ġharmon": 2897,
      "Ġdevelop": 2898,
      "Ġharbor": 2899,
      "oat": 2900,
      "Ġpromot": 2901,
      "Ġdue": 2902,
      "Ġgardening": 2903,
      "Ġturns": 2904,
      "Ġtooth": 2905,
      "Ġcelebrat": 2906,
      "Ġheavier": 2907,
      "line": 2908,
      "Ġleaving": 2909,
      "Ġstruct": 2910,
      "Ġcir": 2911,
      "Ġdest": 2912,
      "Ġlate": 2913,
      "Ġsmaller": 2914,
      "lies": 2915,
      "Ġdiscoveries": 2916,
      "Ġter": 2917,
      "Ġresources": 2918,
      "Ġwool": 2919,
      "Ġbite": 2920,
      "iving": 2921,
      "Ġchar": 2922,
      "Ġdiscomfort": 2923,
      "cc": 2924,
      "use": 2925,
      "Ġobjects": 2926,
      "Ġberry": 2927,
      "ĠHi": 2928,
      "eable": 2929,
      "easing": 2930,
      "Ġroutine": 2931,
      "Ġcream": 2932,
      "Ġanswers": 2933,
      "Ġmetal": 2934,
      "Ġinfluence": 2935,
      "Ġadjust": 2936,
      "Ġholding": 2937,
      "Ġaccount": 2938,
      "Ġachie": 2939,
      "Ġer": 2940,
      "erc": 2941,
      "Ġshade": 2942,
      "Ġregularly": 2943,
      "Ġdiscussion": 2944,
      "Ġdealing": 2945,
      "Ġjob": 2946,
      "Ġdish": 2947,
      "Ġcomplic": 2948,
      "Ġcountry": 2949,
      "vis": 2950,
      "Ġconfusion": 2951,
      "Ġcommit": 2952,
      "Ġclim": 2953,
      "Ġpret": 2954,
      "ready": 2955,
      "Ġunb": 2956,
      "ruction": 2957,
      "Ġpossibilities": 2958,
      "Ġhosp": 2959,
      "Ġstocking": 2960,
      "resh": 2961,
      "Ġhumor": 2962,
      "ĠWalking": 2963,
      "Ġflag": 2964,
      "Ġsugar": 2965,
      "Ġsave": 2966,
      "Ġoil": 2967,
      "Ġboo": 2968,
      "Ġconnecting": 2969,
      "Ġinventions": 2970,
      "Ġstreets": 2971,
      "Ġegg": 2972,
      "Ġsigns": 2973,
      "Ġberries": 2974,
      "ĠSp": 2975,
      "Ġround": 2976,
      "Ġpollution": 2977,
      "afe": 2978,
      "Ġpattern": 2979,
      "Ġeye": 2980,
      "Ġtype": 2981,
      "Ġmeetings": 2982,
      "Ġcra": 2983,
      "ending": 2984,
      "Ġunpleasing": 2985,
      "Ġdigestion": 2986,
      "Ġshelf": 2987,
      "Ġcotton": 2988,
      "ĠSh": 2989,
      "iction": 2990,
      "Ġrole": 2991,
      "Ġharmony": 2992,
      "Ġgold": 2993,
      "Ġgone": 2994,
      "Ġring": 2995,
      "Ġkiss": 2996,
      "Ġneighborhood": 2997,
      "Ġexerc": 2998,
      "Ġunfortunate": 2999,
      "Ġdebt": 3000,
      "Ġtook": 3001,
      "Ġlifting": 3002,
      "Ġap": 3003,
      "Ġfrighten": 3004,
      "ep": 3005,
      "Ġencour": 3006,
      "ones": 3007,
      "Ġbeautifully": 3008,
      "ushing": 3009,
      "Ġlinger": 3010,
      "cles": 3011,
      "erms": 3012,
      "eady": 3013,
      "Ġexchange": 3014,
      "Ġaffecting": 3015,
      "Ġfixing": 3016,
      "Ġsoap": 3017,
      "Ġshocking": 3018,
      "Ġspong": 3019,
      "zz": 3020,
      "Ġinterest": 3021,
      "Ġrat": 3022,
      "Ġleaders": 3023,
      "Ġlevels": 3024,
      "ooky": 3025,
      "Ġbrightens": 3026,
      "Ġplayful": 3027,
      "Ġcourage": 3028,
      "Ġkinder": 3029,
      "Ġspooky": 3030,
      "urance": 3031,
      "Ġobs": 3032,
      "Ġcrowd": 3033,
      "Ġtalks": 3034,
      "Ġprofit": 3035,
      "Ġunsafe": 3036,
      "Ġdeserves": 3037,
      "Ġmonkey": 3038,
      "Ġstyles": 3039,
      "Ġwashing": 3040,
      "Ġvibrant": 3041,
      "Ġkick": 3042,
      "up": 3043,
      "Ġafterward": 3044,
      "Ġcoal": 3045,
      "Ġafterno": 3046,
      "ĠFear": 3047,
      "Ġgerms": 3048,
      "Ġembr": 3049,
      "althy": 3050,
      "Ġperform": 3051,
      "Ġexamp": 3052,
      "Ġgray": 3053,
      "Ġcalmer": 3054,
      "Ġapart": 3055,
      "old": 3056,
      "Ġsoil": 3057,
      "Ġerr": 3058,
      "ĠBut": 3059,
      "cil": 3060,
      "Ġcharact": 3061,
      "Ġwonders": 3062,
      "Ġsomed": 3063,
      "Ġsomeday": 3064,
      "Ġanswer": 3065,
      "inking": 3066,
      "Ġunst": 3067,
      "ists": 3068,
      "Ġroutines": 3069,
      "Ġink": 3070,
      "Ġrains": 3071,
      "iar": 3072,
      "Ġmeat": 3073,
      "Ġhy": 3074,
      "orter": 3075,
      "Ġcomplicated": 3076,
      "Ġsheep": 3077,
      "ĠCleaning": 3078,
      "Ġnicely": 3079,
      "Ġsuff": 3080,
      "Ġwrite": 3081,
      "orable": 3082,
      "ably": 3083,
      "Ġensure": 3084,
      "Ġvoice": 3085,
      "Ġquest": 3086,
      "Ġrule": 3087,
      "Ġfiction": 3088,
      "Ġsilver": 3089,
      "rible": 3090,
      "Ġdirection": 3091,
      "Ġstreet": 3092,
      "Ġquestions": 3093,
      "Ġocc": 3094,
      "Ġsecrets": 3095,
      "Ġunhealthy": 3096,
      "Ġreactions": 3097,
      "Ġimpress": 3098,
      "Ġcreep": 3099,
      "ocol": 3100,
      "Ġjourneys": 3101,
      "Ġbaby": 3102,
      "od": 3103,
      "anced": 3104,
      "Ġcookies": 3105,
      "Ġcrime": 3106,
      "Ġmonths": 3107,
      "Ġstyle": 3108,
      "Ġachieve": 3109,
      "aced": 3110,
      "Ġpaste": 3111,
      "ounts": 3112,
      "Ġhurts": 3113,
      "Ġshiny": 3114,
      "Ġcloth": 3115,
      "Ġvalued": 3116,
      "Ġsilk": 3117,
      "Ġcompetition": 3118,
      "ocolate": 3119,
      "Ġconflic": 3120,
      "oosing": 3121,
      "lear": 3122,
      "Ġpencil": 3123,
      "ins": 3124,
      "Ġtrade": 3125,
      "Ġocean": 3126,
      "Ġship": 3127,
      "Ġbothers": 3128,
      "Ġcush": 3129,
      "Ġlinen": 3130,
      "Ġray": 3131,
      "Ġpolish": 3132,
      "Ġmeas": 3133,
      "Ġgathering": 3134,
      "Ġworm": 3135,
      "Ġnights": 3136,
      "Ġperspective": 3137,
      "Ġchaos": 3138,
      "Ġrisks": 3139,
      "Ġstem": 3140,
      "Ġba": 3141,
      "Ġspent": 3142,
      "Ġhopefully": 3143,
      "cial": 3144,
      "Ġket": 3145,
      "Ġmine": 3146,
      "Ġsalt": 3147,
      "Ġbraver": 3148,
      "Ġflower": 3149,
      "Ġtick": 3150,
      "Ġthrill": 3151,
      "vision": 3152,
      "Ġinsurance": 3153,
      "Ġavail": 3154,
      "Ġstars": 3155,
      "aments": 3156,
      "Ġsubst": 3157,
      "Ġuses": 3158,
      "outh": 3159,
      "Ġfront": 3160,
      "Ġluck": 3161,
      "Ġholds": 3162,
      "Ġtext": 3163,
      "Ġstruggling": 3164,
      "atching": 3165,
      "Ġafternoon": 3166,
      "Ġornaments": 3167,
      "Ġenjoyment": 3168,
      "Ġprin": 3169,
      "Ġmaterial": 3170,
      "rying": 3171,
      "Ġconnects": 3172,
      "Ġmouth": 3173,
      "Ġboard": 3174,
      "Ġruined": 3175,
      "Ġcelebrate": 3176,
      "Ġtin": 3177,
      "Ġcaused": 3178,
      "ĠWith": 3179,
      "'m": 3180,
      "Ġmaintain": 3181,
      "Ġavailable": 3182,
      "ĠSm": 3183,
      "Ġsneeze": 3184,
      "Ġharmful": 3185,
      "Ġfinished": 3186,
      "Ġthrive": 3187,
      "issors": 3188,
      "Ġconcerning": 3189,
      "eel": 3190,
      "opper": 3191,
      "umn": 3192,
      "Ġmountain": 3193,
      "Ġinterests": 3194,
      "Ġrhy": 3195,
      "Ġdowns": 3196,
      "Ġbreaths": 3197,
      "Ġmindset": 3198,
      "ĠWr": 3199,
      "Ġups": 3200,
      "Ġrhyth": 3201,
      "Ġchur": 3202,
      "Ġgover": 3203,
      "Ġoper": 3204,
      "Ġslipp": 3205,
      "Ġgovern": 3206,
      "Ġdiscovering": 3207,
      "Ġstation": 3208,
      "Ġexpressing": 3209,
      "Ġrepair": 3210,
      "Ġscissors": 3211,
      "Ġcrush": 3212,
      "Ġbirth": 3213,
      "Ġrepr": 3214,
      "Ġmemorable": 3215,
      "Ġnu": 3216,
      "Ġresting": 3217,
      "Ġsize": 3218,
      "Ġindust": 3219,
      "Ġcares": 3220,
      "Ġtiny": 3221,
      "Ġpatterns": 3222,
      "Ġdinner": 3223,
      "ĠWriting": 3224,
      "Ġwelcoming": 3225,
      "Ġblanket": 3226,
      "Ġcart": 3227,
      "Ġalready": 3228,
      "Ġbenefits": 3229,
      "Ġchatting": 3230,
      "Ġgoal": 3231,
      "Ġpick": 3232,
      "Ġclass": 3233,
      "Ġmanager": 3234,
      "Ġproperty": 3235,
      "Ġdeath": 3236,
      "aring": 3237,
      "Ġonline": 3238,
      "Ġdrawer": 3239,
      "ĠSeeking": 3240,
      "gi": 3241,
      "Ġmagical": 3242,
      "Ġbreathing": 3243,
      "Ġhole": 3244,
      "Ġturned": 3245,
      "ĠUnder": 3246,
      "Ġkettle": 3247,
      "Ġbought": 3248,
      "Ġrace": 3249,
      "ĠUnderstand": 3250,
      "Ġcam": 3251,
      "Ġpretty": 3252,
      "Ġlarge": 3253,
      "Ġunsteady": 3254,
      "put": 3255,
      "ord": 3256,
      "Ġgovernment": 3257,
      "icking": 3258,
      "Ġstudents": 3259,
      "ired": 3260,
      "Ġsupportive": 3261,
      "Ġcamer": 3262,
      "Ġauth": 3263,
      "Ġpun": 3264,
      "iding": 3265,
      "Ġuplift": 3266,
      "Ġearly": 3267,
      "Ġarch": 3268,
      "Ġchurch": 3269,
      "Ġcapt": 3270,
      "Ġrequires": 3271,
      "Ġchocolate": 3272,
      "Ġcough": 3273,
      "ĠShould": 3274,
      "ishment": 3275,
      "Ġamount": 3276,
      "Ġsurf": 3277,
      "unch": 3278,
      "Ġforg": 3279,
      "Ġexplain": 3280,
      "hanging": 3281,
      "ctive": 3282,
      "Ġdesire": 3283,
      "Ġharsh": 3284,
      "Ġprice": 3285,
      "Ġplate": 3286,
      "val": 3287,
      "Ġcopper": 3288,
      "Ġdrawing": 3289,
      "aving": 3290,
      "Ġsunset": 3291,
      "Ġchest": 3292,
      "Ġrecipe": 3293,
      "Ġmachine": 3294,
      "iled": 3295,
      "ousers": 3296,
      "Ġfing": 3297,
      "Ġcase": 3298,
      "aughter": 3299,
      "Ġrelig": 3300,
      "Ġemotion": 3301,
      "Ġfoot": 3302,
      "Ġlikely": 3303,
      "Ġexpert": 3304,
      "Ġcred": 3305,
      "Ġautumn": 3306,
      "Ġpasses": 3307,
      "ĠWell": 3308,
      "Ġmotiv": 3309,
      "Ġtrousers": 3310,
      "Ġsmash": 3311,
      "Ġdelays": 3312,
      "Ġfrightened": 3313,
      "port": 3314,
      "Ġstrengt": 3315,
      "Ġjudg": 3316,
      "mbers": 3317,
      "ĠMaking": 3318,
      "Ġspots": 3319,
      "Ġcredit": 3320,
      "Ġbrain": 3321,
      "Ġful": 3322,
      "Ġcared": 3323,
      "Ġdecide": 3324,
      "ĠUnderstanding": 3325,
      "Ġinten": 3326,
      "Ġfulfill": 3327,
      "Ġsinging": 3328,
      "Ġdecorations": 3329,
      "place": 3330,
      "ffee": 3331,
      "how": 3332,
      "Ġattitu": 3333,
      "ific": 3334,
      "Ġsomehow": 3335,
      "ctly": 3336,
      "Ġwithin": 3337,
      "Ġstressed": 3338,
      "Ġbell": 3339,
      "Ġgatherings": 3340,
      "Ġarrive": 3341,
      "Ġbear": 3342,
      "Ġterrible": 3343,
      "itary": 3344,
      "Ġstrengthen": 3345,
      "Ġsteel": 3346,
      "Ġves": 3347,
      "ising": 3348,
      "Ġdestruction": 3349,
      "Ġvessel": 3350,
      "Ġpromote": 3351,
      "Ġwants": 3352,
      "Ġhours": 3353,
      "Ġforgot": 3354,
      "Ġrhythm": 3355,
      "Ġheaviness": 3356,
      "fter": 3357,
      "Ġbelongings": 3358,
      "Ġdistant": 3359,
      "Ġdisru": 3360,
      "Ġrespectful": 3361,
      "Ġspill": 3362,
      "Ġbonds": 3363,
      "Ġseriously": 3364,
      "Ġtrend": 3365,
      "Ġturning": 3366,
      "Ġindustry": 3367,
      "Ġwhenever": 3368,
      "Ġcollar": 3369,
      "Ġintense": 3370,
      "Ġword": 3371,
      "Ġbrightness": 3372,
      "Ġbottle": 3373,
      "Ġcondition": 3374,
      "Ġcoffee": 3375,
      "Ġiron": 3376,
      "Ġline": 3377,
      "ĠTrying": 3378,
      "Ġperfectly": 3379,
      "Ġpuzz": 3380,
      "Ġcommitt": 3381,
      "Ġride": 3382,
      "new": 3383,
      "Ġdisappear": 3384,
      "Ġoffers": 3385,
      "Ġstarted": 3386,
      "vas": 3387,
      "Ġunne": 3388,
      "Ġlying": 3389,
      "Ġwax": 3390,
      "Ġcanvas": 3391,
      "Ġmel": 3392,
      "Ġshame": 3393,
      "icing": 3394,
      "Ġindoor": 3395,
      "ĠWatching": 3396,
      "Ġrisk": 3397,
      "des": 3398,
      "Ġint": 3399,
      "Ġmark": 3400,
      "Ġperspectives": 3401,
      "Ġcultures": 3402,
      "Ġtemper": 3403,
      "Ġteaches": 3404,
      "Ġcamera": 3405,
      "ered": 3406,
      "Ġparty": 3407,
      "led": 3408,
      "Ġorganization": 3409,
      "Ġremain": 3410,
      "Ġcarri": 3411,
      "Ġignored": 3412,
      "Ġsoo": 3413,
      "ĠEating": 3414,
      "orts": 3415,
      "Ġrepresent": 3416,
      "Ġgri": 3417,
      "Ġsoothing": 3418,
      "Ġlock": 3419,
      "Ġbasket": 3420,
      "Ġgenerations": 3421,
      "Ġmilitary": 3422,
      "Ġwheel": 3423,
      "Ġroads": 3424,
      "Ġtalked": 3425,
      "ĠExpl": 3426,
      "Ġchecking": 3427,
      "Ġbrought": 3428,
      "Ġgar": 3429,
      "Ġalert": 3430,
      "Ġsupporting": 3431,
      "Ġpiece": 3432,
      "Ġenvironments": 3433,
      "ĠExploring": 3434,
      "ĠGood": 3435,
      "ience": 3436,
      "ners": 3437,
      "Ġdifferences": 3438,
      "Ġdrinking": 3439,
      "Ġneat": 3440,
      "Ġgift": 3441,
      "eading": 3442,
      "ency": 3443,
      "Ġrely": 3444,
      "Ġvarious": 3445,
      "[/": 3446,
      "Ġletting": 3447,
      "Ġpainful": 3448,
      "Ġdoors": 3449,
      "onnect": 3450,
      "Ġcop": 3451,
      "recious": 3452,
      "Ġprecious": 3453,
      "Ġspeaking": 3454,
      "Ġnation": 3455,
      "Ġunnecessary": 3456,
      "Ġslope": 3457,
      "Ġtrack": 3458,
      "Ġpatient": 3459,
      "Ġclothing": 3460,
      "Ġclosely": 3461,
      "Ġaffected": 3462,
      "Ġbrass": 3463,
      "Ġflame": 3464,
      "Ġengine": 3465,
      "Ġsupplies": 3466,
      "Ġgently": 3467,
      "Ġthroat": 3468,
      "ĠRight": 3469,
      "ĠRemembering": 3470,
      "Ġsocks": 3471,
      "ĠHaving": 3472,
      "Ġboost": 3473,
      "Ġauthor": 3474,
      "Ġknife": 3475,
      "Ġends": 3476,
      "Ġimaginations": 3477,
      "Ġraise": 3478,
      "Ġhorse": 3479,
      "Ġedge": 3480,
      "ĠHe": 3481,
      "ike": 3482,
      "Ġpunishment": 3483,
      "Ġcarrying": 3484,
      "Ġpleasures": 3485,
      "Ġworms": 3486,
      "Ġmeans": 3487,
      "ĠYour": 3488,
      "Ġstitch": 3489,
      "hear": 3490,
      "Ġmud": 3491,
      "Ġrubb": 3492,
      "Ġcall": 3493,
      "Ġspoon": 3494,
      "Ġsearching": 3495,
      "Ġpieces": 3496,
      "Ġpractices": 3497,
      "Ġsponge": 3498,
      "ĠBright": 3499,
      "ĠUsing": 3500,
      "rit": 3501,
      "aching": 3502,
      "Ġmessages": 3503,
      "Ġrev": 3504,
      "Ġfade": 3505,
      "aurant": 3506,
      "Ġcommittee": 3507,
      "Ġworked": 3508,
      "Ġrestaurant": 3509,
      "Ġmanageable": 3510,
      "ĠSu": 3511,
      "Ġplane": 3512,
      "Ġpi": 3513,
      "Ġdishear": 3514,
      "Ġdishearten": 3515,
      "Ġhol": 3516,
      "Ġunim": 3517,
      "Ġpleasure": 3518,
      "Ġworkers": 3519,
      "oming": 3520,
      "Ġreaction": 3521,
      "Ġfreely": 3522,
      "Ġsuggestion": 3523,
      "Ġlots": 3524,
      "Ġlarger": 3525,
      "Ġgiving": 3526,
      "Ġtail": 3527,
      "Ġunimport": 3528,
      "Ġrub": 3529,
      "putting": 3530,
      "Ġshoe": 3531,
      "Ġpopular": 3532,
      "Ġreality": 3533,
      "Ġrespond": 3534,
      "ric": 3535,
      "ridge": 3536,
      "Ġsights": 3537,
      "Ġeventually": 3538,
      "Ġleading": 3539,
      "Ġunimportant": 3540,
      "ative": 3541,
      "uring": 3542,
      "Ġworst": 3543,
      "Ġcaught": 3544,
      "Ġcosts": 3545,
      "ancing": 3546,
      "Ġrising": 3547,
      "Ġreminded": 3548,
      "Ġdarker": 3549,
      "Ġrecognize": 3550,
      "Ġthread": 3551,
      "Ġanxiety": 3552,
      "Ġcompared": 3553,
      "Ġtrains": 3554,
      "aiting": 3555,
      "Ġfig": 3556,
      "Ġfeet": 3557,
      "ody": 3558,
      "Ġslip": 3559,
      "Ġsocial": 3560,
      "Ġsnakes": 3561,
      "Ġcushion": 3562,
      "Ġunclear": 3563,
      "ĠWaiting": 3564,
      "Ġenter": 3565,
      "Ġrail": 3566,
      "Ġdisheartening": 3567,
      "Ġcycle": 3568,
      "Ġdrive": 3569,
      "Ġmesses": 3570,
      "ross": 3571,
      "Ġacross": 3572,
      "mpt": 3573,
      "Ġphot": 3574,
      "Ġbecoming": 3575,
      "Ġbrother": 3576,
      "ĠOne": 3577,
      "arming": 3578,
      "Ġdivision": 3579,
      "Ġstormy": 3580,
      "Ġpriorit": 3581,
      "cast": 3582,
      "Ġimprovement": 3583,
      "Ġcand": 3584,
      "Ġtend": 3585,
      "Ġhospital": 3586,
      "Ġsimpler": 3587,
      "Ġconsiderate": 3588,
      "Ġsignific": 3589,
      "Ġcraft": 3590,
      "Ġscar": 3591,
      "Ġbrick": 3592,
      "Ġwisely": 3593,
      "Ġdisappointment": 3594,
      "Ġimpacts": 3595,
      "Ġtens": 3596,
      "Ġapple": 3597,
      "Ġhabit": 3598,
      "Ġnet": 3599,
      "Ġaddress": 3600,
      "Ġexistence": 3601,
      "Ġdisease": 3602,
      "Ġblood": 3603,
      "Ġexample": 3604,
      "ĠIf": 3605,
      "ĠAn": 3606,
      "Ġfur": 3607,
      "ense": 3608,
      "Ġfinds": 3609,
      "Ġselect": 3610,
      "Ġtreasures": 3611,
      "Ġengaging": 3612,
      "ĠWor": 3613,
      "overy": 3614,
      "Ġbusinesses": 3615,
      "Ġvalues": 3616,
      "Ġamazed": 3617,
      "Ġbuck": 3618,
      "cknow": 3619,
      "Ġfog": 3620,
      "Ġthroughout": 3621,
      "ĠEn": 3622,
      "Ġconfused": 3623,
      "Ġsneez": 3624,
      "Ġcow": 3625,
      "Ġneck": 3626,
      "Ġhoped": 3627,
      "adays": 3628,
      "Ġnowadays": 3629,
      "Ġunderstands": 3630,
      "Ġbased": 3631,
      "Ġstage": 3632,
      "ĠSim": 3633,
      "Ġstructure": 3634,
      "Ġpipe": 3635,
      "Ġcounts": 3636,
      "ĠCh": 3637,
      "Ġunwise": 3638,
      "Ġreligion": 3639,
      "Ġreceived": 3640,
      "Ġowners": 3641,
      "Ġamid": 3642,
      "Ġsurv": 3643,
      "ĠFresh": 3644,
      "fast": 3645,
      "lever": 3646,
      "Ġpicnics": 3647,
      "Ġhammer": 3648,
      "Ġcarriage": 3649,
      "Ġplanting": 3650,
      "Ġclever": 3651,
      "sequ": 3652,
      "Ġsingle": 3653,
      "Ġcharacters": 3654,
      "Ġconsequ": 3655,
      "Ġfork": 3656,
      "Ġprison": 3657,
      "Ġpage": 3658,
      "Ġembrace": 3659,
      "irl": 3660,
      "Ġlake": 3661,
      "Ġmessage": 3662,
      "Ġsomewhere": 3663,
      "Ġoperation": 3664,
      "Ġmother": 3665,
      "Ġtaken": 3666,
      "Ġfishing": 3667,
      "bage": 3668,
      "ddy": 3669,
      "Ġchoosing": 3670,
      "Ġfamiliar": 3671,
      "Ġconsequences": 3672,
      "Ġinteract": 3673,
      "Ġgarbage": 3674,
      "Ġcorre": 3675,
      "Ġfab": 3676,
      "Ġstone": 3677,
      "Ġbreaking": 3678,
      "Ġpoison": 3679,
      "Ġunth": 3680,
      "osity": 3681,
      "Ġbreakfast": 3682,
      "usement": 3683,
      "Ġtee": 3684,
      "feren": 3685,
      "Ġknew": 3686,
      "ĠJ": 3687,
      "ately": 3688,
      "Ġmornings": 3689,
      "ashion": 3690,
      "Ġteeth": 3691,
      "Ġwarning": 3692,
      "Ġcork": 3693,
      "Ġfilms": 3694,
      "Ġexactly": 3695,
      "Ġdiscovery": 3696,
      "Ġbehaviors": 3697,
      "body": 3698,
      "Ġbrush": 3699,
      "Ġwindows": 3700,
      "atus": 3701,
      "Ġbugs": 3702,
      "Ġchase": 3703,
      "Ġdisturbing": 3704,
      "Ġstamps": 3705,
      "Ġcalmly": 3706,
      "oups": 3707,
      "Ġseat": 3708,
      "Ġcircle": 3709,
      "Ġinstrument": 3710,
      "low": 3711,
      "Ġsmiling": 3712,
      "Ġbucket": 3713,
      "Ġsist": 3714,
      "Ġinspired": 3715,
      "Ġdevelopment": 3716,
      "Ġdance": 3717,
      "Ġbutton": 3718,
      "Ġbasin": 3719,
      "Ġstores": 3720,
      "anted": 3721,
      "Ġcurtain": 3722,
      "Ġwave": 3723,
      "Ġchain": 3724,
      "Ġamusement": 3725,
      "Ġpowder": 3726,
      "Ġsetting": 3727,
      "Ġsnake": 3728,
      "Ġcompar": 3729,
      "Ġneglect": 3730,
      "Ġseeds": 3731,
      "Ġimproving": 3732,
      "Ġseeking": 3733,
      "Ġsignificant": 3734,
      "Ġtreated": 3735,
      "Ġapples": 3736,
      "usting": 3737,
      "ĠNo": 3738,
      "Ġauthority": 3739,
      "Ġcars": 3740,
      "Ġporter": 3741,
      "Ġpayment": 3742,
      "Ġhygi": 3743,
      "Ġfaced": 3744,
      "Ġappearance": 3745,
      "Ġtra": 3746,
      "Ġwatched": 3747,
      "ability": 3748,
      "Ġsister": 3749,
      "Ġabs": 3750,
      "Ġinspiring": 3751,
      "Ġspecific": 3752,
      "ĠOur": 3753,
      "Ġprotest": 3754,
      "Ġtension": 3755,
      "Ġpreferen": 3756,
      "Ġcrowded": 3757,
      "Ġforce": 3758,
      "Ġspringtime": 3759,
      "Ġlunch": 3760,
      "Ġorganize": 3761,
      "ĠTea": 3762,
      "ounter": 3763,
      "Ġwasted": 3764,
      "yc": 3765,
      "Ġsystems": 3766,
      "Ġupd": 3767,
      "Ġcontrib": 3768,
      "Ġresponsibilities": 3769,
      "Ġnumber": 3770,
      "Ġjobs": 3771,
      "Ġmuddy": 3772,
      "hered": 3773,
      "Ġson": 3774,
      "Ġplays": 3775,
      "Ġreminder": 3776,
      "Ġexperienc": 3777,
      "Ġent": 3778,
      "Ġgrain": 3779,
      "Ġapproval": 3780,
      "acking": 3781,
      "gies": 3782,
      "Ġserve": 3783,
      "Ġappar": 3784,
      "Ġacting": 3785,
      "Ġapparatus": 3786,
      "Ġhygiene": 3787,
      "Ġpoorly": 3788,
      "Ġreasonable": 3789,
      "kept": 3790,
      "Ġbadly": 3791,
      "ycling": 3792,
      "Ġcovered": 3793,
      "Ġartists": 3794,
      "Ġgirl": 3795,
      "Ġbeginnings": 3796,
      "Ġregard": 3797,
      "Ġoutlook": 3798,
      "Ġpicking": 3799,
      "Ġprioritize": 3800,
      "Ġbranches": 3801,
      "Ġfulfilling": 3802,
      "Ġcharm": 3803,
      "Ġtong": 3804,
      "Ġprint": 3805,
      "Ġdamaged": 3806,
      "Ġgun": 3807,
      "Ġreaching": 3808,
      "ĠPlaying": 3809,
      "Ġfields": 3810,
      "Ġnorth": 3811,
      "Ġadvertisements": 3812,
      "Ġhelped": 3813,
      "Ġatte": 3814,
      "istant": 3815,
      "ĠWorking": 3816,
      "Ġvide": 3817,
      "Ġarmy": 3818,
      "Ġfine": 3819,
      "Ġframe": 3820,
      "Ġowner": 3821,
      "Ġfant": 3822,
      "Ġacid": 3823,
      "Ġincluding": 3824,
      "uild": 3825,
      "ĠReading": 3826,
      "back": 3827,
      "ats": 3828,
      "Ġtrad": 3829,
      "Ġloves": 3830,
      "Ġmotivated": 3831,
      "Ġshock": 3832,
      "Ġrelaxation": 3833,
      "Ġquieter": 3834,
      "Ġcame": 3835,
      "rier": 3836,
      "Ġpuzzling": 3837,
      "Ġbranch": 3838,
      "Ġappealing": 3839,
      "Ġnobody": 3840,
      "Ġpreferences": 3841,
      "Ġadvertisement": 3842,
      "Ġaccident": 3843,
      "orses": 3844,
      "ĠHelp": 3845,
      "otic": 3846,
      "Ġrealized": 3847,
      "Ġcows": 3848,
      "ient": 3849,
      "Ġskirt": 3850,
      "Ġsuggestions": 3851,
      "Ġdaughter": 3852,
      "Ġacknow": 3853,
      "Ġboot": 3854,
      "Ġmistake": 3855,
      "Ġdistractions": 3856,
      "Ġtreasure": 3857,
      "ĠHelping": 3858,
      "Ġbake": 3859,
      "Ġknows": 3860,
      "apped": 3861,
      "oper": 3862,
      "Ġenjoys": 3863,
      "Ġtales": 3864,
      "Ġresolve": 3865,
      "Ġburdens": 3866,
      "Ġselection": 3867,
      "Ġstops": 3868,
      "Ġsilence": 3869,
      "Ġchaotic": 3870,
      "Ġinterru": 3871,
      "Ġglove": 3872,
      "dget": 3873,
      "Ġopening": 3874,
      "Ġticket": 3875,
      "ĠMus": 3876,
      "Ġwom": 3877,
      "Ġfashion": 3878,
      "pping": 3879,
      "ĠSimple": 3880,
      "igate": 3881,
      "Ġlingers": 3882,
      "Ġgrip": 3883,
      "flection": 3884,
      "Ġname": 3885,
      "Ġbase": 3886,
      "Ġpartic": 3887,
      "Ġnav": 3888,
      "ĠMusic": 3889,
      "ĠCreat": 3890,
      "Ġmysterious": 3891,
      "Ġsandw": 3892,
      "Ġsmoother": 3893,
      "ashing": 3894,
      "Ġentertain": 3895,
      "ĠCom": 3896,
      "Ġbudget": 3897,
      "Ġweak": 3898,
      "getic": 3899,
      "Ġlaws": 3900,
      "ĠCan": 3901,
      "Ġendless": 3902,
      "iqu": 3903,
      "Ġpres": 3904,
      "Ġwon": 3905,
      "Ġshel": 3906,
      "ĠKind": 3907,
      "Ġclimb": 3908,
      "Ġcorner": 3909,
      "life": 3910,
      "orrow": 3911,
      "Ġbrains": 3912,
      "Ġneedle": 3913,
      "Ġtaxes": 3914,
      "Ġoutcome": 3915,
      "Ġdoct": 3916,
      "Ġthrilling": 3917,
      "Ġreminders": 3918,
      "Ġloudly": 3919,
      "Ġfighting": 3920,
      "Ġskill": 3921,
      "Ġexercise": 3922,
      "Ġirrit": 3923,
      "oking": 3924,
      "Ġsearch": 3925,
      "Ġhonesty": 3926,
      "Ġexpans": 3927,
      "ocket": 3928,
      "Ġwit": 3929,
      "Ġservant": 3930,
      "Ġknee": 3931,
      "Ġfantastic": 3932,
      "Ġwanting": 3933,
      "Ġignoring": 3934,
      "Ġlur": 3935,
      "hedu": 3936,
      "Ġsecretary": 3937,
      "Ġmass": 3938,
      "Ġcooler": 3939,
      "Ġdetail": 3940,
      "har": 3941,
      "Ġpocket": 3942,
      "Ġviolence": 3943,
      "Ġcutting": 3944,
      "bby": 3945,
      "Ġappreciating": 3946,
      "Ġobserv": 3947,
      "ites": 3948,
      "Ġtoe": 3949,
      "Ġspoiled": 3950,
      "ĠHapp": 3951,
      "Ġconcl": 3952,
      "eries": 3953,
      "Ġrod": 3954,
      "Ġlaughing": 3955,
      "Ġexpansion": 3956,
      "Ġblowing": 3957,
      "ground": 3958,
      "Ġpushing": 3959,
      "Ġhobby": 3960,
      "ĠSmall": 3961,
      "way": 3962,
      "Ġkept": 3963,
      "Ġgain": 3964,
      "Ġposition": 3965,
      "unning": 3966,
      "Ġreli": 3967,
      "Ġmoves": 3968,
      "Ġemotional": 3969,
      "ither": 3970,
      "Ġstretching": 3971,
      "Ġalarming": 3972,
      "ĠSunshine": 3973,
      "Ġmeasure": 3974,
      "Ġmotion": 3975,
      "Ġcuriosity": 3976,
      "Ġconflict": 3977,
      "Ġnuts": 3978,
      "Ġstuff": 3979,
      "hedule": 3980,
      "ird": 3981,
      "Ġcolder": 3982,
      "Ġwire": 3983,
      "ication": 3984,
      "Ġleg": 3985,
      "Ġcord": 3986,
      "Ġgrows": 3987,
      "Ġfactors": 3988,
      "cher": 3989,
      "Ġunwind": 3990,
      "Ġsatisfying": 3991,
      "Ġrich": 3992,
      "Ġnoticing": 3993,
      "Ġputting": 3994,
      "ĠSpeaking": 3995,
      "Ġplastic": 3996,
      "Ġrefreshed": 3997,
      "Ġenhan": 3998,
      "ĠKindness": 3999,
      "ĠAss": 4000,
      "ĠAssistant": 4001,
      "Ġboring": 4002,
      "Ġexha": 4003,
      "Ġrechar": 4004,
      "Ġlimits": 4005,
      "Ġimpressive": 4006,
      "ief": 4007,
      "Ġbroke": 4008,
      "assion": 4009,
      "Ġfills": 4010,
      "Ġbalanced": 4011,
      "iest": 4012,
      "Ġscen": 4013,
      "Ġfalls": 4014,
      "Ġfol": 4015,
      "Ġarguments": 4016,
      "yond": 4017,
      "Ġcats": 4018,
      "Ġruining": 4019,
      "Ġbeyond": 4020,
      "ply": 4021,
      "essert": 4022,
      "Ġgroups": 4023,
      "Ġmembers": 4024,
      "Ġgreater": 4025,
      "Ġattack": 4026,
      "Ġbehave": 4027,
      "Ġencouraging": 4028,
      "Ġwitness": 4029,
      "ĠWhen": 4030,
      "Ġfolks": 4031,
      "ĠReflection": 4032,
      "Ġeggs": 4033,
      "Ġrepairs": 4034,
      "Ġsimply": 4035,
      "Ġnose": 4036,
      "Ġheavily": 4037,
      "Ġnerves": 4038,
      "Ġunthought": 4039,
      "Ġec": 4040,
      "Ġarise": 4041,
      "ĠSunny": 4042,
      "Ġsell": 4043,
      "Ġlurking": 4044,
      "ĠOh": 4045,
      "Ġeer": 4046,
      "Ġtheory": 4047,
      "Ġannoyed": 4048,
      "Ġdistrib": 4049,
      "ĠTime": 4050,
      "Ġtexture": 4051,
      "Ġdessert": 4052,
      "Ġuniverse": 4053,
      "Ġerrors": 4054,
      "Ġschedule": 4055,
      "Ġeerie": 4056,
      "aren": 4057,
      "Ġdisrupt": 4058,
      "Ġchief": 4059,
      "Ġweird": 4060,
      "Ġstrongly": 4061,
      "ĠAfter": 4062,
      "Ġangrier": 4063,
      "Ġprotecting": 4064,
      "Ġfail": 4065,
      "Ġarrives": 4066,
      "ls": 4067,
      "Ġtrapped": 4068,
      "Ġcomparison": 4069,
      "Ġnavigate": 4070,
      "Ġimages": 4071,
      "Ġrespected": 4072,
      "Ġrecycling": 4073,
      "Ġvisitors": 4074,
      "Ġpredict": 4075,
      "Ġclut": 4076,
      "Ġsour": 4077,
      "Ġtongue": 4078,
      "Ġdiscovered": 4079,
      "Ġbags": 4080,
      "Ġcompassion": 4081,
      "Ġopinion": 4082,
      "ĠStar": 4083,
      "Ġtrends": 4084,
      "Ġoccas": 4085,
      "Ġsources": 4086,
      "Ġcovering": 4087,
      "Ġinvention": 4088,
      "Ġrelation": 4089,
      "Ġfinan": 4090,
      "Ġflies": 4091,
      "oses": 4092,
      "aries": 4093,
      "Ġrecharge": 4094,
      "Ġunthoughtful": 4095,
      "Ġhorses": 4096,
      "Ġpassing": 4097,
      "Ġunit": 4098,
      "Ġfolding": 4099,
      "Ġtechniqu": 4100,
      "Ġhook": 4101,
      "Ġrecord": 4102,
      "Ġtouching": 4103,
      "erving": 4104,
      "ducing": 4105,
      "Ġmuscles": 4106,
      "Ġdistribution": 4107,
      "Ġsaid": 4108,
      "Ġnotes": 4109,
      "Ġcopy": 4110,
      "Ġrivers": 4111,
      "Ġfeed": 4112,
      "Ġwalls": 4113,
      "Ġargument": 4114,
      "Ġenergetic": 4115,
      "ctions": 4116,
      "Ġvisits": 4117,
      "'re": 4118,
      "itive": 4119,
      "Ġcurve": 4120,
      "istening": 4121,
      "Ġattraction": 4122,
      "ination": 4123,
      "Ġcooper": 4124,
      "Ġimproves": 4125,
      "Ġattitude": 4126,
      "ied": 4127,
      "Ġpracticing": 4128,
      "Ġrolling": 4129,
      "gging": 4130,
      "Ġburning": 4131,
      "Ġdidn": 4132,
      "Ġforgotten": 4133,
      "Ġholid": 4134,
      "Ġquietly": 4135,
      "Ġstones": 4136,
      "ĠStarting": 4137,
      "Ġsucc": 4138,
      "ĠOf": 4139,
      "Ġupdates": 4140,
      "Ġspilled": 4141,
      "ĠListening": 4142,
      "Ġpeacefully": 4143,
      "Ġproductive": 4144,
      "ĠThinking": 4145,
      "Ġscale": 4146,
      "Ġblade": 4147,
      "Ġdem": 4148,
      "sibly": 4149,
      "Ġupcoming": 4150,
      "Ġdifficulties": 4151,
      "Ġbuying": 4152,
      "Ġfinancial": 4153,
      "Ġspoil": 4154,
      "Ġtrans": 4155,
      "hanges": 4156,
      "Ġstri": 4157,
      "Ġsupported": 4158,
      "ĠPain": 4159,
      "Ġcomplain": 4160,
      "Ġscents": 4161,
      "Ġsurvive": 4162,
      "ret": 4163,
      "ible": 4164,
      "Ġsuffering": 4165,
      "og": 4166,
      "Ġwhip": 4167,
      "Ġjuice": 4168,
      "Ġscenes": 4169,
      "Ġeffic": 4170,
      "ided": 4171,
      "ĠCreating": 4172,
      "lowers": 4173,
      "Ġtraffic": 4174,
      "Ġdamp": 4175,
      "Ġcru": 4176,
      "Ġclimate": 4177,
      "ib": 4178,
      "Ġmeant": 4179,
      "Ġreplace": 4180,
      "Ġsurface": 4181,
      "Ġsometime": 4182,
      "Ġsex": 4183,
      "Ġtraveling": 4184,
      "Ġteacher": 4185,
      "Ġaddition": 4186,
      "Ġletters": 4187,
      "Ġstitching": 4188,
      "Ġrisky": 4189,
      "Ġconsidering": 4190,
      "ĠV": 4191,
      "Ġencounter": 4192,
      "Ġreflects": 4193,
      "Ġcrafts": 4194,
      "Ġexhausting": 4195,
      "iches": 4196,
      "Ġfurther": 4197,
      "Ġsucceed": 4198,
      "Ġblank": 4199,
      "Ġreliable": 4200,
      "Ġkindly": 4201,
      "Ġdrivers": 4202,
      "lines": 4203,
      "Ġrelease": 4204,
      "Ġsubstances": 4205,
      "Ġallowing": 4206,
      "Ġouting": 4207,
      "fy": 4208,
      "enery": 4209,
      "Ġrise": 4210,
      "Ġdeg": 4211,
      "Ġforms": 4212,
      "Ġitself": 4213,
      "ĠSn": 4214,
      "Ġbasic": 4215,
      "Ġability": 4216,
      "Ġsubstance": 4217,
      "Ġcapture": 4218,
      "Ġfell": 4219,
      "ĠFacing": 4220,
      "Ġvisited": 4221,
      "Ġfad": 4222,
      "Ġending": 4223,
      "Ġmanaging": 4224,
      "Ġwasting": 4225,
      "Ġnegatively": 4226,
      "Ġshadow": 4227,
      "Ġjewels": 4228,
      "Ġblows": 4229,
      "Ġhurting": 4230,
      "Ġencourages": 4231,
      "wing": 4232,
      "Ġrate": 4233,
      "edom": 4234,
      "Ġopens": 4235,
      "Ġhonestly": 4236,
      "Ġsandwiches": 4237,
      "Ġdemand": 4238,
      "Ġservices": 4239,
      "ights": 4240,
      "ram": 4241,
      "Ġmagic": 4242,
      "Ġfigure": 4243,
      "Ġslippery": 4244,
      "ĠEven": 4245,
      "Ġplayed": 4246,
      "Ġagreement": 4247,
      "Ġphotos": 4248,
      "Ġsleeping": 4249,
      "Ġmissed": 4250,
      "Ġcreepy": 4251,
      "Ġstructures": 4252,
      "Ġtechniques": 4253,
      "Ġdepends": 4254,
      "ouraging": 4255,
      "Ġsadder": 4256,
      "Ġfreedom": 4257,
      "Ġoccur": 4258,
      "Ġanyway": 4259,
      "umb": 4260,
      "Ġspills": 4261,
      "Ġmovement": 4262,
      "ĠSw": 4263,
      "Ġwildlife": 4264,
      "Ġunappreci": 4265,
      "Ġpulling": 4266,
      "Ġod": 4267,
      "Ġdigging": 4268,
      "Ġstrate": 4269,
      "pending": 4270,
      "Ġpile": 4271,
      "pts": 4272,
      "Ġbothersome": 4273,
      "Ġrare": 4274,
      "Ġmystery": 4275,
      "Ġfeedback": 4276,
      "Ġtemperature": 4277,
      "Ġhig": 4278,
      "Ġverse": 4279,
      "Ġseed": 4280,
      "ĠSpending": 4281,
      "Ġschools": 4282,
      "Ġunre": 4283,
      "Ġord": 4284,
      "ĠEveryone": 4285,
      "ĠNot": 4286,
      "ĠChanging": 4287,
      "ber": 4288,
      "Ġwoman": 4289,
      "ju": 4290,
      "Ġmovements": 4291,
      "Ġsuffer": 4292,
      "Ġflash": 4293,
      "Ġfilm": 4294,
      "Ġmeanings": 4295,
      "Ġentire": 4296,
      "ĠDoes": 4297,
      "Ġforecast": 4298,
      "Ġmotivation": 4299,
      "Ġuntr": 4300,
      "Ġago": 4301,
      "Ġcontent": 4302,
      "Ġdisappointed": 4303,
      "Ġstains": 4304,
      "Ġdispl": 4305,
      "Ġenerg": 4306,
      "ĠStr": 4307,
      "Ġz": 4308,
      "Ġparen": 4309,
      "mer": 4310,
      "oll": 4311,
      "Ġconclusion": 4312,
      "Ġerror": 4313,
      "Ġvariety": 4314,
      "icy": 4315,
      "Ġtasted": 4316,
      "Ġconcert": 4317,
      "Ġfinger": 4318,
      "Ġspreads": 4319,
      "othered": 4320,
      "Ġhurtful": 4321,
      "free": 4322,
      "Ġengaged": 4323,
      "Ġunbothered": 4324,
      "Ġunappreciated": 4325,
      "Ġbabies": 4326,
      "Ġcollection": 4327,
      "Ġhelpless": 4328,
      "Ġtendency": 4329,
      "unting": 4330,
      "ĠOver": 4331,
      "Ġrepresentative": 4332,
      "Ġproud": 4333,
      "Ġamidst": 4334,
      "Ġeither": 4335,
      "Ġfinally": 4336,
      "Ġunexc": 4337,
      "Ġbrake": 4338,
      "ocked": 4339,
      "Ġfrustrations": 4340,
      "Ġdisag": 4341,
      "Ġitem": 4342,
      "Ġjumping": 4343,
      "Ġhumans": 4344,
      "Ġyard": 4345,
      "Ġcaf": 4346,
      "Ġorganizing": 4347,
      "nger": 4348,
      "Ġleaf": 4349,
      "Ġpaying": 4350,
      "ĠThanks": 4351,
      "Ġruins": 4352,
      "olding": 4353,
      "ĠMem": 4354,
      "Ġmonkeys": 4355,
      "ĠAnim": 4356,
      "Ġadded": 4357,
      "lex": 4358,
      "Ġspeed": 4359,
      "Ġreducing": 4360,
      "tles": 4361,
      "ĠEach": 4362,
      "ĠPainting": 4363,
      "ushed": 4364,
      "Ġscenery": 4365,
      "Ġpasta": 4366,
      "Ġdisres": 4367,
      "Ġbenefit": 4368,
      "Ġsort": 4369,
      "inary": 4370,
      "itals": 4371,
      "Ġnails": 4372,
      "Ġass": 4373,
      "Ġtraining": 4374,
      "Ġattempt": 4375,
      "ossible": 4376,
      "ĠEnjoy": 4377,
      "Ġdarkest": 4378,
      "Ġtreatment": 4379,
      "Ġenhance": 4380,
      "Ġnail": 4381,
      "ĠMemories": 4382,
      "ĠOp": 4383,
      "Ġshops": 4384,
      "Ġunpr": 4385,
      "uilding": 4386,
      "Ġroots": 4387,
      "Ġweeks": 4388,
      "Ġlands": 4389,
      "Ġhigher": 4390,
      "Ġtense": 4391,
      "Ġimpossible": 4392,
      "Ġadjustment": 4393,
      "Ġcrucial": 4394,
      "Ġabsolutely": 4395,
      "Ġrewards": 4396,
      "Ġjack": 4397,
      "Ġtot": 4398,
      "Ġunease": 4399,
      "Ġresil": 4400,
      "oles": 4401,
      "Ġtransform": 4402,
      "Ġgen": 4403,
      "Ġconflicts": 4404,
      "erim": 4405,
      "Ġfingers": 4406,
      "ĠOften": 4407,
      "Ġscene": 4408,
      "Ġrecover": 4409,
      "Ġfarms": 4410,
      "Ġcorrectly": 4411,
      "Ġflashlight": 4412,
      "Ġfest": 4413,
      "Ġperformance": 4414,
      "Ġpositives": 4415,
      "ĠAnimals": 4416,
      "ilt": 4417,
      "Ġben": 4418,
      "Ġinju": 4419,
      "Ġsports": 4420,
      "Ġhuge": 4421,
      "Ġbone": 4422,
      "Ġremove": 4423,
      "ĠTeaching": 4424,
      "Ġdisagree": 4425,
      "Ġinvite": 4426,
      "Ġoverl": 4427,
      "Ġanywhere": 4428,
      "ĠFriend": 4429,
      "Ġpiling": 4430,
      "Ġcute": 4431,
      "Ġthumb": 4432,
      "Ġfairness": 4433,
      "Ġfabric": 4434,
      "ops": 4435,
      "Ġvital": 4436,
      "ping": 4437,
      "Ġlittering": 4438,
      "action": 4439,
      "Ġinstruments": 4440,
      "Ġgifts": 4441,
      "Ġrepeat": 4442,
      "Ġwings": 4443,
      "Ġrude": 4444,
      "Ġrefresh": 4445,
      "Ġafterwards": 4446,
      "Ġriding": 4447,
      "Ġsmoking": 4448,
      "Ġsurrounds": 4449,
      "Ġfridge": 4450,
      "Ġfarmers": 4451,
      "ĠPlan": 4452,
      "mun": 4453,
      "Ġthreat": 4454,
      "Ġrequest": 4455,
      "Ġdining": 4456,
      "Ġuninter": 4457,
      "Ġstatement": 4458,
      "Ġpreparing": 4459,
      "Ġfrag": 4460,
      "mon": 4461,
      "ession": 4462,
      "cri": 4463,
      "ia": 4464,
      "Ġboats": 4465,
      "pport": 4466,
      "Ġpriority": 4467,
      "Ġcraw": 4468,
      "Ġchecked": 4469,
      "Ġinclude": 4470,
      "ledg": 4471,
      "Ġexperim": 4472,
      "Ġcountries": 4473,
      "mbol": 4474,
      "Ġappears": 4475,
      "Ġrust": 4476,
      "Ġmountains": 4477,
      "Ġopened": 4478,
      "Ġchill": 4479,
      "Ġflu": 4480,
      "Ġhides": 4481,
      "Ġsymbol": 4482,
      "Ġbar": 4483,
      "Ġreport": 4484,
      "Ġdelay": 4485,
      "mend": 4486,
      "ĠPlanning": 4487,
      "ĠUn": 4488,
      "Ġsalad": 4489,
      "ĠWow": 4490,
      "ĠEar": 4491,
      "Ġele": 4492,
      "Ġdepending": 4493,
      "Ġcleaned": 4494,
      "Ġblankets": 4495,
      "Ġvideo": 4496,
      "af": 4497,
      "Ġincreas": 4498,
      "Ġsaving": 4499,
      "Ġdisrespect": 4500,
      "Ġchildhood": 4501,
      "Ġpapers": 4502,
      "Ġdoctor": 4503,
      "Ġdegree": 4504,
      "Ġlip": 4505,
      "Ġbuilds": 4506,
      "Ġcelebrations": 4507,
      "Ġneeding": 4508,
      "Ġjokes": 4509,
      "Ġdirectly": 4510,
      "Ġsoot": 4511,
      "ival": 4512,
      "Ġbike": 4513,
      "Ġsaying": 4514,
      "Ġcustomer": 4515,
      "Ġunaw": 4516,
      "Ġstunning": 4517,
      "Ġprogram": 4518,
      "ĠChe": 4519,
      "Ġtrips": 4520,
      "compl": 4521,
      "ensive": 4522,
      "Ġsurprisingly": 4523,
      "iking": 4524,
      "Ġconcerned": 4525,
      "Ġrubbish": 4526,
      "Ġfeat": 4527,
      "Ġhospitals": 4528,
      "Ġpromises": 4529,
      "Ġoverlooked": 4530,
      "Ġsmallest": 4531,
      "Ġcarelessly": 4532,
      "Ġshout": 4533,
      "Ġregarding": 4534,
      "Ġreflective": 4535,
      "Ġmedia": 4536,
      "ted": 4537,
      "Ġtotally": 4538,
      "Ġaccidentally": 4539,
      "Ġpotential": 4540,
      "dding": 4541,
      "Ġlistens": 4542,
      "Ġpack": 4543,
      "Ġsenses": 4544,
      "Ġble": 4545,
      "ommend": 4546,
      "Ġrecommend": 4547,
      "opped": 4548,
      "ĠEarth": 4549,
      "Ġsurfaces": 4550,
      "ĠOverall": 4551,
      "Ġroles": 4552,
      "Ġfavorites": 4553,
      "Ġhandling": 4554,
      "organ": 4555,
      "Ġric": 4556,
      "earing": 4557,
      "Ġbutterf": 4558,
      "pting": 4559,
      "Ġguard": 4560,
      "Ġricher": 4561,
      "issing": 4562,
      "ĠSupport": 4563,
      "Ġemer": 4564,
      "Ġsoothe": 4565,
      "ĠAnger": 4566,
      "Ġplanes": 4567,
      "Ġresponse": 4568,
      "Ġunm": 4569,
      "Ã©": 4570,
      "Ġadm": 4571,
      "Ġchair": 4572,
      "ilities": 4573,
      "ĠRain": 4574,
      "Ġsneezing": 4575,
      "Ġcontinues": 4576,
      "lish": 4577,
      "Ġtwists": 4578,
      "Ġsatisfaction": 4579,
      "Ġglo": 4580,
      "Ġneighb": 4581,
      "Ġslipping": 4582,
      "Ġbound": 4583,
      "ĠCommun": 4584,
      "amil": 4585,
      "Ġdressing": 4586,
      "Ġobservation": 4587,
      "Ġworlds": 4588,
      "Ġclutter": 4589,
      "Ġwoods": 4590,
      "sidered": 4591,
      "Ġordinary": 4592,
      "Ġempat": 4593,
      "Ġexperts": 4594,
      "Ġalright": 4595,
      "Ġmuscle": 4596,
      "Ġopt": 4597,
      "Ġtextures": 4598,
      "Ġcelebrating": 4599,
      "Ġcities": 4600,
      "Ġmale": 4601,
      "Ġolder": 4602,
      "Ġsurrounded": 4603,
      "ped": 4604,
      "ĠChanges": 4605,
      "Ġforest": 4606,
      "ĠFor": 4607,
      "Ġwouldn": 4608,
      "Ġunbal": 4609,
      "Ġloneliness": 4610,
      "Ġinteractions": 4611,
      "drat": 4612,
      "Ġdre": 4613,
      "ptions": 4614,
      "Ġboundaries": 4615,
      "Ġtightly": 4616,
      "ĠcafÃ©": 4617,
      "Ġtang": 4618,
      "Ġcrafting": 4619,
      "Ġrush": 4620,
      "Ġconsidered": 4621,
      "Ġsens": 4622,
      "tered": 4623,
      "Ġscare": 4624,
      "ĠBuilding": 4625,
      "Ġjoining": 4626,
      "Ġlikes": 4627,
      "iced": 4628,
      "Ġblock": 4629,
      "Ġtasting": 4630,
      "Ġappreciation": 4631,
      "oating": 4632,
      "Ġdropped": 4633,
      "Ġcollecting": 4634,
      "Ġuninteresting": 4635,
      "Ġgh": 4636,
      "Ġghost": 4637,
      "oing": 4638,
      "Ġweekends": 4639,
      "Ġjudgment": 4640,
      "Ġclosed": 4641,
      "Ġchats": 4642,
      "Ġcovers": 4643,
      "Ġabilities": 4644,
      "Ġfa": 4645,
      "iration": 4646,
      "Ġrequire": 4647,
      "rics": 4648,
      "organized": 4649,
      "Ġparents": 4650,
      "Ġnerve": 4651,
      "Ġhydrat": 4652,
      "Ġmoved": 4653,
      "Ġhit": 4654,
      "Ġmeasures": 4655,
      "dows": 4656,
      "Ġflags": 4657,
      "Ġunbalanced": 4658,
      "Ġstylish": 4659,
      "Ġunited": 4660,
      "Ġfewer": 4661,
      "Ġunaware": 4662,
      "Ġliked": 4663,
      "Ġlasts": 4664,
      "Ġsubjects": 4665,
      "Ġanytime": 4666,
      "Ġflex": 4667,
      "ĠAr": 4668,
      "Ġfloating": 4669,
      "Ġproduct": 4670,
      "Ġcircles": 4671,
      "Ġneighbors": 4672,
      "storm": 4673,
      "Ġshorter": 4674,
      "Ġdecided": 4675,
      "orthy": 4676,
      "Ġoutfit": 4677,
      "Ġfragile": 4678,
      "Ġattitudes": 4679,
      "Ġempathy": 4680,
      "Ġteachers": 4681,
      "Ġraising": 4682,
      "Ġthemes": 4683,
      "term": 4684,
      "Ġunpro": 4685,
      "Ġgrab": 4686,
      "Ġroot": 4687,
      "Ġprobably": 4688,
      "Ġwondering": 4689,
      "Ġaccess": 4690,
      "Ġgoodby": 4691,
      "esty": 4692,
      "Ġreturns": 4693,
      "ĠAre": 4694,
      "Ġdreary": 4695,
      "Ġpair": 4696,
      "etting": 4697,
      "Ġunexciting": 4698,
      "oration": 4699,
      "ĠLooking": 4700,
      "ĠGreat": 4701,
      "Ġstrategies": 4702,
      "Ġlimited": 4703,
      "ging": 4704,
      "Ġinsect": 4705,
      "Ġlines": 4706,
      "Ġwounds": 4707,
      "Ġconstantly": 4708,
      "Ġembracing": 4709,
      "ud": 4710,
      "ossed": 4711,
      "Ġsignificantly": 4712,
      "Ġfurn": 4713,
      "amiliar": 4714,
      "assed": 4715,
      "Ġgest": 4716,
      "Ġunn": 4717,
      "Ġimagining": 4718,
      "Ġneighborhoods": 4719,
      "atures": 4720,
      "isy": 4721,
      "Ġtemperatures": 4722,
      "rep": 4723,
      "Ġsides": 4724,
      "iture": 4725,
      "Ġovercoming": 4726,
      "Ġfurniture": 4727,
      "ball": 4728,
      "Ġdaunting": 4729,
      "Ġnowhere": 4730,
      "Ġmixing": 4731,
      "Ġlocked": 4732,
      "Ġtold": 4733,
      "Ġexperiencing": 4734,
      "Ġequally": 4735,
      "Ġscient": 4736,
      "Ġlets": 4737,
      "Ġthrowing": 4738,
      "Ġincredi": 4739,
      "ĠEnjoying": 4740,
      "anges": 4741,
      "Ġsteep": 4742,
      "Ġunfamiliar": 4743,
      "fulfill": 4744,
      "Ġscre": 4745,
      "Ġinstin": 4746,
      "ĠCl": 4747,
      "Ġfluff": 4748,
      "Ġbridge": 4749,
      "Ġbes": 4750,
      "Ġunfulfill": 4751,
      "utes": 4752,
      "Ġnoisy": 4753,
      "Ġlif": 4754,
      "Ġgranted": 4755,
      "Ġmoder": 4756,
      "Ġracing": 4757,
      "ocks": 4758,
      "Ġfrequently": 4759,
      "Ġtesting": 4760,
      "ards": 4761,
      "Ġdescri": 4762,
      "Ġcharacter": 4763,
      "Ġtests": 4764,
      "Ġunity": 4765,
      "atives": 4766,
      "elling": 4767,
      "Ġexamples": 4768,
      "Ġacknowledge": 4769,
      "utions": 4770,
      "Ġrides": 4771,
      "Ġlay": 4772,
      "Ġsadly": 4773,
      "Ġexpensive": 4774,
      "Ġfeatures": 4775,
      "Ġparticip": 4776,
      "Ġappreciated": 4777,
      "Ġhydrated": 4778,
      "Ġfunction": 4779,
      "sha": 4780,
      "Ġavoiding": 4781,
      "Ġlower": 4782,
      "ĠNow": 4783,
      "Ġculture": 4784,
      "br": 4785,
      "Ġsolving": 4786,
      "Ġhopeless": 4787,
      "Ġmysteries": 4788,
      "Ġrestaurants": 4789,
      "fession": 4790,
      "Ġprotection": 4791,
      "Ġbins": 4792,
      "Ġprograms": 4793,
      "Ġbirthday": 4794,
      "Ġcelebration": 4795,
      "Ġstanding": 4796,
      "Ġrats": 4797,
      "nding": 4798,
      "Ġships": 4799,
      "together": 4800,
      "Ġjacket": 4801,
      "Ġdisplay": 4802,
      "repared": 4803,
      "Ġflowing": 4804,
      "Ġtwo": 4805,
      "Ġtraditions": 4806,
      "Ġfluffy": 4807,
      "urity": 4808,
      "Ġbrightening": 4809,
      "Ġphone": 4810,
      "ands": 4811,
      "Ġreview": 4812,
      "ental": 4813,
      "Ġaspect": 4814,
      "Ġinves": 4815,
      "Ġimage": 4816,
      "Ġmotivate": 4817,
      "izes": 4818,
      "Ġvary": 4819,
      "Ġinspiration": 4820,
      "Ġreports": 4821,
      "Ġsqu": 4822,
      "Ġirritating": 4823,
      "ĠCaring": 4824,
      "Ġded": 4825,
      "Ġreflections": 4826,
      "Ġquicker": 4827,
      "onnected": 4828,
      "Ġunwanted": 4829,
      "Ġdiverse": 4830,
      "Ġhous": 4831,
      "Ġtogetherness": 4832,
      "Ġaim": 4833,
      "Ġban": 4834,
      "Ġboots": 4835,
      "Ġreveal": 4836,
      "Ġcards": 4837,
      "Ġstir": 4838,
      "Ġartwork": 4839,
      "Ġorganizations": 4840,
      "ĠShadows": 4841,
      "Ġtun": 4842,
      "Ġinvol": 4843,
      "Ġhats": 4844,
      "Ġwake": 4845,
      "Ġregain": 4846,
      "ĠEduc": 4847,
      "Ġengage": 4848,
      "Ġartist": 4849,
      "umm": 4850,
      "Ġmanagement": 4851,
      "Ġshowed": 4852,
      "itude": 4853,
      "Ġmention": 4854,
      "Ġbeings": 4855,
      "ĠDr": 4856,
      "Ġfreshness": 4857,
      "Ġpoints": 4858,
      "Ġemerg": 4859,
      "ĠChoosing": 4860,
      "Ġshore": 4861,
      "ĠHappiness": 4862,
      "berries": 4863,
      "Ġsurrounding": 4864,
      "aps": 4865,
      "eases": 4866,
      "Ġheads": 4867,
      "Ġhiking": 4868,
      "Ġdesires": 4869,
      "Ġattend": 4870,
      "ĠGard": 4871,
      "Ġflights": 4872,
      "Ġexercises": 4873,
      "ĠWarm": 4874,
      "Ġblocking": 4875,
      "Ġreaders": 4876,
      "Ġsecurity": 4877,
      "Ġsore": 4878,
      "bts": 4879,
      "ĠBaking": 4880,
      "Ġgoodbye": 4881,
      "Ġdescribe": 4882,
      "Ġweighing": 4883,
      "ĠArt": 4884,
      "Ġwires": 4885,
      "izz": 4886,
      "Ġtangled": 4887,
      "idance": 4888,
      "Ġdraining": 4889,
      "Ġcombin": 4890,
      "Ġrays": 4891,
      "imming": 4892,
      "Ġprepar": 4893,
      "Ġguidance": 4894,
      "Ġtries": 4895,
      "ĠFood": 4896,
      "ummy": 4897,
      "Ġhighlight": 4898,
      "eating": 4899,
      "zing": 4900,
      "ndry": 4901,
      "Ġunprepared": 4902,
      "Ġvers": 4903,
      "Ġpayments": 4904,
      "Ġfloat": 4905,
      "Ġshelter": 4906,
      "Ġdancing": 4907,
      "Ġloving": 4908,
      "Ġsponges": 4909,
      "Ġcontribute": 4910,
      "Ġoccasions": 4911,
      "ĠMo": 4912,
      "Ġwindy": 4913,
      "Ġsway": 4914,
      "Ġfinances": 4915,
      "Ġaff": 4916,
      "Ġinsights": 4917,
      "ĠHolding": 4918,
      "cu": 4919,
      "ded": 4920,
      "Ġwonderfully": 4921,
      "Ġlaundry": 4922,
      "Ġlemon": 4923,
      "Ġknots": 4924,
      "Ġaud": 4925,
      "Ġdev": 4926,
      "ĠIm": 4927,
      "oint": 4928,
      "irts": 4929,
      "Ġaltogether": 4930,
      "cha": 4931,
      "Ġlies": 4932,
      "Ġchores": 4933,
      "Ġdrawings": 4934,
      "Ġattractions": 4935,
      "ĠImag": 4936,
      "Ġtravels": 4937,
      "Ġbutterflies": 4938,
      "Ġrot": 4939,
      "Ġprofits": 4940,
      "ĠAt": 4941,
      "Ġstudy": 4942,
      "Ġsticking": 4943,
      "Ġhouses": 4944,
      "Ġenergized": 4945,
      "Ġended": 4946,
      "Ġexperienced": 4947,
      "ĠSupporting": 4948,
      "Ġreceipts": 4949,
      "ushes": 4950,
      "Ġshaking": 4951,
      "Ġoption": 4952,
      "Ġafford": 4953,
      "Ġbravery": 4954,
      "Ġcooked": 4955,
      "Ġdrag": 4956,
      "Ġmanners": 4957,
      "Ġwaters": 4958,
      "Ġstepping": 4959,
      "Ġwing": 4960,
      "Ġcorners": 4961,
      "ĠDrinking": 4962,
      "hile": 4963,
      "Ġselfish": 4964,
      "Ġunnot": 4965,
      "Ġoversha": 4966,
      "dges": 4967,
      "Ġmaintaining": 4968,
      "Ġlesson": 4969,
      "Ġstrang": 4970,
      "Ġsays": 4971,
      "ots": 4972,
      "Ġplayground": 4973,
      "ĠFriends": 4974,
      "ster": 4975,
      "Ġclears": 4976,
      "Ġsofter": 4977,
      "Ġdim": 4978,
      "ĠDogs": 4979,
      "Ġmouths": 4980,
      "Ġworn": 4981,
      "Ġfollowing": 4982,
      "Ġeffici": 4983,
      "Ġrid": 4984,
      "Ġhappiest": 4985,
      "Ġdiseases": 4986,
      "urt": 4987,
      "Ġfrustrates": 4988,
      "Ġlaug": 4989,
      "Ġherbs": 4990,
      "Ġodors": 4991,
      "ĠFlowers": 4992,
      "Ġpolishing": 4993,
      "Ġunlike": 4994,
      "ipes": 4995,
      "Ġunending": 4996,
      "Ġlaughed": 4997,
      "iven": 4998,
      "room": 4999,
      "ratitude": 5000,
      "Ġunchanging": 5001,
      "Ġfres": 5002,
      "Ġthrown": 5003,
      "Ġprovides": 5004,
      "Ġexperiment": 5005,
      "Ġaspects": 5006,
      "Ġtells": 5007,
      "Ġlegs": 5008,
      "Ġdeli": 5009,
      "izza": 5010,
      "Ġoutfits": 5011,
      "Ġresponsibly": 5012,
      "Ġillness": 5013,
      "Ġoranges": 5014,
      "Ġwalked": 5015,
      "Ġdism": 5016,
      "Ġunfold": 5017,
      "Ġshocked": 5018,
      "Ġraining": 5019,
      "Ġsweetness": 5020,
      "umbs": 5021,
      "Ġplaytime": 5022,
      "Ġthankful": 5023,
      "Ġbones": 5024,
      "Ġnames": 5025,
      "Ġunite": 5026,
      "ored": 5027,
      "ĠMissing": 5028,
      "Ġwarms": 5029,
      "Ġclimbing": 5030,
      "Ġcandles": 5031,
      "Ġmethod": 5032,
      "Ġunnoticed": 5033,
      "Ġvast": 5034,
      "Ġgrace": 5035,
      "Ġincredible": 5036,
      "Ġsteaming": 5037,
      "Ġtiredness": 5038,
      "ĠTrust": 5039,
      "ĠSwimming": 5040,
      "unk": 5041,
      "Ġwilling": 5042,
      "ĠOpen": 5043,
      "Ġpipes": 5044,
      "Ġtoast": 5045,
      "yst": 5046,
      "ĠSpring": 5047,
      "Ġadjustments": 5048,
      "Ġgloves": 5049,
      "aff": 5050,
      "Ġengines": 5051,
      "Ġrubbing": 5052,
      "heart": 5053,
      "Ġisol": 5054,
      "Ġyummy": 5055,
      "Ġtied": 5056,
      "Ġharms": 5057,
      "tains": 5058,
      "Ġlouder": 5059,
      "Ġstomachs": 5060,
      "enses": 5061,
      "Ġcreated": 5062,
      "Ġmodern": 5063,
      "Ġspices": 5064,
      "ledging": 5065,
      "Ġinjuries": 5066,
      "hearted": 5067,
      "Ġhurry": 5068,
      "Ġage": 5069,
      "Ġinfluences": 5070,
      "Ġincluded": 5071,
      "Ġsupposed": 5072,
      "Ġbands": 5073,
      "reed": 5074,
      "Ġholiday": 5075,
      "Ġgenu": 5076,
      "gest": 5077,
      "Ġcakes": 5078,
      "Ġsimplest": 5079,
      "Ġhung": 5080,
      "Ġlonging": 5081,
      "eng": 5082,
      "Ġobserve": 5083,
      "Ġshelves": 5084,
      "Ġdisast": 5085,
      "Ġballo": 5086,
      "Ġpurcha": 5087,
      "Ġproperties": 5088,
      "ĠCommunication": 5089,
      "Ġpause": 5090,
      "orms": 5091,
      "Ġdistracting": 5092,
      "Ġbuilt": 5093,
      "Ġgall": 5094,
      "Ġtack": 5095,
      "ĠLaughter": 5096,
      "Ġunable": 5097,
      "ĠIsn": 5098,
      "ĠCats": 5099,
      "Ġcurtains": 5100,
      "Ġresilience": 5101,
      "Ġaccompl": 5102,
      "Ġscares": 5103,
      "Ġscent": 5104,
      "Ġconstruction": 5105,
      "Ġcrawling": 5106,
      "Ġworkplace": 5107,
      "Ġscientists": 5108,
      "Ġtele": 5109,
      "ĠSeeing": 5110,
      "Ġinstincts": 5111,
      "Ġheight": 5112,
      "Ġcooperate": 5113,
      "Ġrushing": 5114,
      "Ġsticks": 5115,
      "ĠLetting": 5116,
      "Ġpointless": 5117,
      "Ġdedication": 5118,
      "Ġflexible": 5119,
      "ump": 5120,
      "Ġexpecting": 5121,
      "Ġfilling": 5122,
      "ressing": 5123,
      "care": 5124,
      "Ġwore": 5125,
      "Ġcarefree": 5126,
      "Ġoceans": 5127,
      "Ġexpenses": 5128,
      "Ġunl": 5129,
      "co": 5130,
      "Ġtalent": 5131,
      "Ġremains": 5132,
      "Ġhungry": 5133,
      "Ġpassion": 5134,
      "Ġsched": 5135,
      "Ġnumbers": 5136,
      "acked": 5137,
      "Ġstraw": 5138,
      "nov": 5139,
      "Ġdisrespectful": 5140,
      "Ġwrit": 5141,
      "ĠPract": 5142,
      "Ġur": 5143,
      "Ġwander": 5144,
      "Ġobst": 5145,
      "Ġbeneath": 5146,
      "Ġrecycle": 5147,
      "rap": 5148,
      "Ġflood": 5149,
      "Ġwasteful": 5150,
      "alities": 5151,
      "ductive": 5152,
      "Ġinspires": 5153,
      "ĠQ": 5154,
      "Ġobstac": 5155,
      "anting": 5156,
      "ĠWishing": 5157,
      "Ġhill": 5158,
      "Ġbri": 5159,
      "Ġsust": 5160,
      "Ġinterested": 5161,
      "Ġscarier": 5162,
      "Ġunproductive": 5163,
      "Ġgave": 5164,
      "Ġcomforts": 5165,
      "Ġstable": 5166,
      "Ġholes": 5167,
      "ĠEnc": 5168,
      "Ġpizza": 5169,
      "Ġpudd": 5170,
      "Ġreviews": 5171,
      "Ġcreations": 5172,
      "Ġpresence": 5173,
      "Ġdram": 5174,
      "Ġrecovery": 5175,
      "ales": 5176,
      "Ġrepeating": 5177,
      "Ġfabrics": 5178,
      "Ġsustain": 5179,
      "Ġpresentation": 5180,
      "Ġsensitive": 5181,
      "Ġshoulders": 5182,
      "dow": 5183,
      "imy": 5184,
      "Ġbrightened": 5185,
      "Ġsource": 5186,
      "Ġovershadow": 5187,
      "Ġneglected": 5188,
      "fessional": 5189,
      "Ġpool": 5190,
      "Ġpassed": 5191,
      "Ġdocu": 5192,
      "Ġstock": 5193,
      "Ġbesides": 5194,
      "cap": 5195,
      "ĠToday": 5196,
      "Ġqualities": 5197,
      "Ġzoo": 5198,
      "ĠSad": 5199,
      "Ġcrit": 5200,
      "ĠAnd": 5201,
      "ĠStories": 5202,
      "Ġinvest": 5203,
      "worthy": 5204,
      "Ġcarelessness": 5205,
      "Ġforgetting": 5206,
      "Ġconcent": 5207,
      "Ġimpulses": 5208,
      "Ġresear": 5209,
      "Ġstudies": 5210,
      "Ġnutri": 5211,
      "ically": 5212,
      "Ġstaff": 5213,
      "ĠClear": 5214,
      "eeds": 5215,
      "Ġobstacles": 5216,
      "Ġcushions": 5217,
      "ashed": 5218,
      "aches": 5219,
      "Ġadults": 5220,
      "Ġcorrect": 5221,
      "Ġmad": 5222,
      "ĠConnect": 5223,
      "ĠPre": 5224,
      "ĠHappy": 5225,
      "Ġunfairly": 5226,
      "Ġbalancing": 5227,
      "Ġfires": 5228,
      "Ġsuccessful": 5229,
      "ĠAg": 5230,
      "Ġsoftly": 5231,
      "Ġschedules": 5232,
      "Ġpests": 5233,
      "Ġarching": 5234,
      "Ġpour": 5235,
      "ĠBir": 5236,
      "cking": 5237,
      "Ġswee": 5238,
      "Ġjunk": 5239,
      "Ġbuds": 5240,
      "Ġtelevision": 5241,
      "Ġsav": 5242,
      "Ġtails": 5243,
      "Ġpages": 5244,
      "quality": 5245,
      "Ġdeals": 5246,
      "Ġstandards": 5247,
      "Ġinvolves": 5248,
      "Ġconven": 5249,
      "tings": 5250,
      "Ġstrive": 5251,
      "Ġnutrients": 5252,
      "Ġbiggest": 5253,
      "Ġviewers": 5254,
      "Ġsatisfied": 5255,
      "ĠEducation": 5256,
      "Ġpatients": 5257,
      "Ġlanguages": 5258,
      "ror": 5259,
      "Ġperce": 5260,
      "Ġthoughtless": 5261,
      "Ġrelieve": 5262,
      "Ġrecognition": 5263,
      "cogn": 5264,
      "Ġcrops": 5265,
      "Ġblend": 5266,
      "aight": 5267,
      "uses": 5268,
      "Ġstraight": 5269,
      "Ġentirely": 5270,
      "Ġadmire": 5271,
      "Ġempt": 5272,
      "Ġaudience": 5273,
      "Ġrespons": 5274,
      "Ġdirections": 5275,
      "Ġmarks": 5276,
      "ached": 5277,
      "Ġglow": 5278,
      "Ġstrengths": 5279,
      "paring": 5280,
      "Ġdisrupts": 5281,
      "kempt": 5282,
      "Ġguests": 5283,
      "Ġunkempt": 5284,
      "Ġdep": 5285,
      "Ġswea": 5286,
      "Ġaccepting": 5287,
      "ties": 5288,
      "Ġregret": 5289,
      "Ġsettings": 5290,
      "Ġunorganized": 5291,
      "ĠAl": 5292,
      "Ġfearsome": 5293,
      "Ġbottles": 5294,
      "Ġpromoting": 5295,
      "Ġfigures": 5296,
      "Ġdisagreements": 5297,
      "Ġexists": 5298,
      "Ġplates": 5299,
      "ulner": 5300,
      "Ġcapturing": 5301,
      "ĠStrange": 5302,
      "Ġcou": 5303,
      "Ġperi": 5304,
      "Ġvulner": 5305,
      "Ġhass": 5306,
      "Ġtreating": 5307,
      "Ġevenings": 5308,
      "Ġfading": 5309,
      "Ġassist": 5310,
      "Ġhug": 5311,
      "ĠTheir": 5312,
      "Ġticking": 5313,
      "Ġlightness": 5314,
      "ockets": 5315,
      "ining": 5316,
      "Ġdoubts": 5317,
      "Ġtoes": 5318,
      "Ġlightning": 5319,
      "Ġinnov": 5320,
      "Ġminutes": 5321,
      "arr": 5322,
      "ĠWorry": 5323,
      "Ġtoug": 5324,
      "Ġwiser": 5325,
      "Ġgestures": 5326,
      "Ġhassle": 5327,
      "Ġgiven": 5328,
      "Ġcharge": 5329,
      "ĠQu": 5330,
      "ĠVery": 5331,
      "ĠEncouraging": 5332,
      "Ġdiscouraging": 5333,
      "Ġbackground": 5334,
      "Ġholidays": 5335,
      "Ġcontain": 5336,
      "ify": 5337,
      "Ġaren": 5338,
      "gly": 5339,
      "Ġjoke": 5340,
      "Ġunheard": 5341,
      "Ġrestore": 5342,
      "Ġproviding": 5343,
      "Ġtickets": 5344,
      "Ġpockets": 5345,
      "Ġconsideration": 5346,
      "ĠTom": 5347,
      "Ġslower": 5348,
      "Ġflames": 5349,
      "Ġgenuine": 5350,
      "cy": 5351,
      "Ġprotests": 5352,
      "Ġencouragement": 5353,
      "Ġimpression": 5354,
      "Ġpainted": 5355,
      "Ġcreeping": 5356,
      "Ġyours": 5357,
      "Ġuncertainties": 5358,
      "Ġbegins": 5359,
      "Ġgratitude": 5360,
      "Ġincreasing": 5361,
      "ĠChecking": 5362,
      "Ġvan": 5363,
      "Ġendings": 5364,
      "ĠSnee": 5365,
      "Ġmold": 5366,
      "Ġhumid": 5367,
      "Ġreb": 5368,
      "Ġresponses": 5369,
      "Ġstudying": 5370,
      "Ġhabitats": 5371,
      "Ġdevices": 5372,
      "ĠRes": 5373,
      "ĠShe": 5374,
      "ĠGetting": 5375,
      "oping": 5376,
      "Ġstain": 5377,
      "ĠBad": 5378,
      "Ġruns": 5379,
      "Ġeducate": 5380,
      "Ġspl": 5381,
      "Ġsending": 5382,
      "Ġpreparation": 5383,
      "Ġbricks": 5384,
      "Ġtelling": 5385,
      "Ġsandcast": 5386,
      "Ġsorrow": 5387,
      "osyst": 5388,
      "Ġecosyst": 5389,
      "ĠGardening": 5390,
      "ĠAgreed": 5391,
      "Ġoutings": 5392,
      "Ġdiff": 5393,
      "Ġrespecting": 5394,
      "ades": 5395,
      "Ġsettle": 5396,
      "Ġdiet": 5397,
      "Ġstands": 5398,
      "Ġugly": 5399,
      "Ġrooms": 5400,
      "ipping": 5401,
      "ĠPracticing": 5402,
      "ounds": 5403,
      "Ġdistracted": 5404,
      "ĠDis": 5405,
      "ĠMost": 5406,
      "Ġbump": 5407,
      "Ġseats": 5408,
      "Ġguns": 5409,
      "Ġpulls": 5410,
      "hic": 5411,
      "Ġunkindness": 5412,
      "Ġbow": 5413,
      "Ġoccasion": 5414,
      "Ġcatching": 5415,
      "Ġbaked": 5416,
      "Ġsau": 5417,
      "Ġsold": 5418,
      "Ġraces": 5419,
      "Ġkeys": 5420,
      "Ġdesserts": 5421,
      "Ġpond": 5422,
      "ants": 5423,
      "Ġlistened": 5424,
      "Ġefficiently": 5425,
      "Ġwhatever": 5426,
      "Ġringing": 5427,
      "Ġvideos": 5428,
      "Ġcompanions": 5429,
      "Ġcontributions": 5430,
      "Ġinterruptions": 5431,
      "Ġappoint": 5432,
      "Ġmentioned": 5433,
      "Ġrepeated": 5434,
      "Ġbills": 5435,
      "Ġfights": 5436,
      "Ġhardly": 5437,
      "Ġdelayed": 5438,
      "uing": 5439,
      "engers": 5440,
      "Ġsweeter": 5441,
      "Ġemptiness": 5442,
      "ĠNew": 5443,
      "isp": 5444,
      "riendly": 5445,
      "Ġpressing": 5446,
      "Ġimagined": 5447,
      "Ġcords": 5448,
      "Ġvessels": 5449,
      "Ġunfulfilled": 5450,
      "rees": 5451,
      "Ġbecame": 5452,
      "Ġrotten": 5453,
      "ĠPreparing": 5454,
      "orn": 5455,
      "ipment": 5456,
      "Ġpassengers": 5457,
      "Ġrelationship": 5458,
      "Ġcreeps": 5459,
      "Ġparticular": 5460,
      "ĠSneezing": 5461,
      "Ġequipment": 5462,
      "Ġvibes": 5463,
      "ĠTomorrow": 5464,
      "Ġdur": 5465,
      "Ġhardest": 5466,
      "Ġcomfortably": 5467,
      "Ġoffering": 5468,
      "Ġshares": 5469,
      "Ġaside": 5470,
      "Ġdecoration": 5471,
      "resp": 5472,
      "Ġrates": 5473,
      "Ġplayers": 5474,
      "Ġscream": 5475,
      "Ġrecognized": 5476,
      "Ġrestless": 5477,
      "Ġprints": 5478,
      "Ġkitchens": 5479,
      "Ġwarnings": 5480,
      "Ġrecognizing": 5481,
      "Ġaltern": 5482,
      "Ġlemonade": 5483,
      "icity": 5484,
      "Ġaller": 5485,
      "icycle": 5486,
      "Ġtouches": 5487,
      "Ġfans": 5488,
      "Ġbicycle": 5489,
      "Ġreturning": 5490,
      "Ġtim": 5491,
      "isons": 5492,
      "riving": 5493,
      "Ġwond": 5494,
      "Ġripp": 5495,
      "Ġcandy": 5496,
      "ĠWeather": 5497,
      "Ġlaughs": 5498,
      "Ġsewing": 5499,
      "Ġentertaining": 5500,
      "ĠStrong": 5501,
      "ued": 5502,
      "Ġfresher": 5503,
      "Ġflour": 5504,
      "ters": 5505,
      "Ġlibr": 5506,
      "ĠComfort": 5507,
      "Ġpossibility": 5508,
      "ifferen": 5509,
      "Ġcreature": 5510,
      "Ġsupports": 5511,
      "ĠChild": 5512,
      "ords": 5513,
      "Ġtackle": 5514,
      "asty": 5515,
      "Ġchore": 5516,
      "leep": 5517,
      "Ġscu": 5518,
      "Ġcooperation": 5519,
      "cing": 5520,
      "Ġbubb": 5521,
      "Ġmatches": 5522,
      "ĠOn": 5523,
      "Ġcrowds": 5524,
      "Ġthinks": 5525,
      "afety": 5526,
      "Ġpace": 5527,
      "Ġwondered": 5528,
      "lpt": 5529,
      "ĠOr": 5530,
      "Ġdusty": 5531,
      "ixing": 5532,
      "Ġannoyances": 5533,
      "ĠSafety": 5534,
      "Ġsnowm": 5535,
      "ees": 5536,
      "Ġlearns": 5537,
      "Ġnurt": 5538,
      "Ġdrives": 5539,
      "Ġcontrast": 5540,
      "Ġregardless": 5541,
      "onom": 5542,
      "Ġshall": 5543,
      "Ġbeaches": 5544,
      "onf": 5545,
      "Ġinstant": 5546,
      "ĠImagining": 5547,
      "telling": 5548,
      "Ġsculpt": 5549,
      "Ġsink": 5550,
      "ĠImp": 5551,
      "ĠConnecting": 5552,
      "Ġwag": 5553,
      "Ġdesk": 5554,
      "ĠSounds": 5555,
      "Ġchef": 5556,
      "Ġgoods": 5557,
      "Ġdeadlines": 5558,
      "Ġannoys": 5559,
      "Ġprocesses": 5560,
      "ĠRea": 5561,
      "uri": 5562,
      "Ġneedles": 5563,
      "Ġunfortunately": 5564,
      "Ġdepth": 5565,
      "Ġmoist": 5566,
      "Ġinterrupt": 5567,
      "Ġconcentrate": 5568,
      "Ġexplan": 5569,
      "rell": 5570,
      "ĠBirds": 5571,
      "flowers": 5572,
      "Ġguiding": 5573,
      "cks": 5574,
      "Ġmaps": 5575,
      "mbrell": 5576,
      "azy": 5577,
      "Ġweighs": 5578,
      "Ġuncover": 5579,
      "Ġefficient": 5580,
      "Ġnasty": 5581,
      "Ġobject": 5582,
      "Ġeconom": 5583,
      "Ġcombinations": 5584,
      "Ġstrawberries": 5585,
      "Ġtear": 5586,
      "Ġmuse": 5587,
      "Ġbowl": 5588,
      "Ġfarming": 5589,
      "Ġmisl": 5590,
      "ume": 5591,
      "Ġforming": 5592,
      "Ġthanks": 5593,
      "Ġfairly": 5594,
      "ĠDriving": 5595,
      "Ġelect": 5596,
      "ibility": 5597,
      "Ġvulnerable": 5598,
      "Ġfence": 5599,
      "Ġshirts": 5600,
      "ĠResting": 5601,
      "Ġthreatening": 5602,
      "Ġlifesty": 5603,
      "Ġresult": 5604,
      "Ġconsist": 5605,
      "Ġsickness": 5606,
      "kward": 5607,
      "ĠDark": 5608,
      "Ġstorytelling": 5609,
      "Ġdesigned": 5610,
      "itting": 5611,
      "Ġgrossed": 5612,
      "Ġobserving": 5613,
      "Ġumbrell": 5614,
      "Ġcrunch": 5615,
      "Ġevoke": 5616,
      "Ġfinishing": 5617,
      "ĠWashing": 5618,
      "Ġslimy": 5619,
      "Ġfestival": 5620,
      "Ġtwice": 5621,
      "mind": 5622,
      "Ġagreements": 5623,
      "Ġsees": 5624,
      "Ġweeds": 5625,
      "Ġachievements": 5626,
      "Ġkicking": 5627,
      "Ġvibe": 5628,
      "overs": 5629,
      "Ġpens": 5630,
      "Ġstability": 5631,
      "Ġchose": 5632,
      "Ġmisunderstanding": 5633,
      "Ġputs": 5634,
      "Ġawkward": 5635,
      "Ġbuzz": 5636,
      "Ġunfairness": 5637,
      "ĠWorrying": 5638,
      "Ġpride": 5639,
      "ĠMoving": 5640,
      "oes": 5641,
      "Ġmoonlight": 5642,
      "Ġcoping": 5643,
      "Ġresearch": 5644,
      "Ġslips": 5645,
      "Ġdeciding": 5646,
      "Ġmarkets": 5647,
      "Ġmental": 5648,
      "Ġgrime": 5649,
      "minded": 5650,
      "Ġexercising": 5651,
      "Ġrepl": 5652,
      "Ġunready": 5653,
      "Ġdisgusts": 5654,
      "Ġnighttime": 5655,
      "Ġburnt": 5656,
      "ised": 5657,
      "ringing": 5658,
      "Ġgrains": 5659,
      "Ġargue": 5660,
      "Ġalike": 5661,
      "Ġadap": 5662,
      "apping": 5663,
      "ficial": 5664,
      "Ġmostly": 5665,
      "Ġuncomfortably": 5666,
      "Ġtie": 5667,
      "reaking": 5668,
      "ĠCold": 5669,
      "mat": 5670,
      "Ġsizes": 5671,
      "Ġstatements": 5672,
      "made": 5673,
      "Ġarguing": 5674,
      "Ġboun": 5675,
      "Ġburned": 5676,
      "ky": 5677,
      "Ġcherished": 5678,
      "Ġrecords": 5679,
      "ĠOld": 5680,
      "Ġwarmly": 5681,
      "Ġchalking": 5682,
      "Ġboss": 5683,
      "ĠPos": 5684,
      "Ġjudged": 5685,
      "ĠJust": 5686,
      "Ġentertainment": 5687,
      "ĠAdding": 5688,
      "Ġremark": 5689,
      "Ġconfr": 5690,
      "Ġpicked": 5691,
      "Ġsneak": 5692,
      "cies": 5693,
      "itiz": 5694,
      "Ġplain": 5695,
      "Ġpuddles": 5696,
      "Ġcatches": 5697,
      "Ġtempor": 5698,
      "Ġattemp": 5699,
      "ĠBl": 5700,
      "Ġmelting": 5701,
      "ĠChildren": 5702,
      "asting": 5703,
      "Ġsurvival": 5704,
      "ĠCertain": 5705,
      "Ġkites": 5706,
      "Ġlucky": 5707,
      "Ġbare": 5708,
      "Ġapproaches": 5709,
      "Ġpaintings": 5710,
      "Ġrelate": 5711,
      "Ġcuts": 5712,
      "Ġshades": 5713,
      "lls": 5714,
      "Ġcas": 5715,
      "Ġpleasing": 5716,
      "Ġcrying": 5717,
      "Ġlibrary": 5718,
      "Ġfits": 5719,
      "Ġcombination": 5720,
      "Ġla": 5721,
      "istic": 5722,
      "ĠVis": 5723,
      "Ġcour": 5724,
      "Ġtheories": 5725,
      "Ġdistraction": 5726,
      "Ġcance": 5727,
      "Ġarms": 5728,
      "Ġbelieving": 5729,
      "Ġintentions": 5730,
      "Ġlandscape": 5731,
      "Ġgrown": 5732,
      "Ġaffordable": 5733,
      "Ġperformances": 5734,
      "Ġfulfilled": 5735,
      "anag": 5736,
      "enty": 5737,
      "Ġunknowns": 5738,
      "Ġpumping": 5739,
      "Ġbeneficial": 5740,
      "Ġgallery": 5741,
      "ĠPr": 5742,
      "encies": 5743,
      "olving": 5744,
      "tenance": 5745,
      "Ġamusing": 5746,
      "Ġacceptable": 5747,
      "Ġurg": 5748,
      "Ġlocking": 5749,
      "Ġacknowledging": 5750,
      "Ġhandled": 5751,
      "Ġlingering": 5752,
      "Ġbearable": 5753,
      "Ġimproved": 5754,
      "Ġcomments": 5755,
      "ggy": 5756,
      "Ġdoctors": 5757,
      "bo": 5758,
      "think": 5759,
      "Ġrealizing": 5760,
      "Ġcompetitions": 5761,
      "Ġoperations": 5762,
      "ater": 5763,
      "unt": 5764,
      "Ġpriorities": 5765,
      "Ġunmanag": 5766,
      "Ġunmanageable": 5767,
      "ĠFun": 5768,
      "Ġuntrust": 5769,
      "Ġlacking": 5770,
      "Ġresist": 5771,
      "Ġwishes": 5772,
      "Ġintim": 5773,
      "ĠHoping": 5774,
      "Ġunkindly": 5775,
      "Ġstopped": 5776,
      "Ġcollab": 5777,
      "nal": 5778,
      "Ġbushes": 5779,
      "ifferent": 5780,
      "asy": 5781,
      "ĠStorms": 5782,
      "Ġcommitment": 5783,
      "Ġcollars": 5784,
      "ĠRespect": 5785,
      "ĠVisiting": 5786,
      "eared": 5787,
      "Ġcomed": 5788,
      "Ġreconnect": 5789,
      "Ġpots": 5790,
      "Ġbend": 5791,
      "Ġrights": 5792,
      "ĠBringing": 5793,
      "Ġwheels": 5794,
      "Ġwishing": 5795,
      "Ġparties": 5796,
      "Ġembarr": 5797,
      "Ġmen": 5798,
      "Ġdut": 5799,
      "Ġpill": 5800,
      "Ġhoney": 5801,
      "etter": 5802,
      "Ġchick": 5803,
      "wal": 5804,
      "Ġghosts": 5805,
      "Ġexploration": 5806,
      "eness": 5807,
      "Ġadvance": 5808,
      "Ġjoyfully": 5809,
      "Ġattached": 5810,
      "Ġmaintenance": 5811,
      "Ġthrows": 5812,
      "ĠBetter": 5813,
      "Ġobservations": 5814,
      "Ġlips": 5815,
      "Ġbites": 5816,
      "ĠPol": 5817,
      "Ġrebuild": 5818,
      "ups": 5819,
      "Ġmedic": 5820,
      "Ġdiffer": 5821,
      "for": 5822,
      "Ġtrigg": 5823,
      "Ġwhether": 5824,
      "aim": 5825,
      "Ġkite": 5826,
      "Ġtemporary": 5827,
      "Ġcreatively": 5828,
      "Ġtruths": 5829,
      "Ġattempts": 5830,
      "ced": 5831,
      "ident": 5832,
      "Ġshi": 5833,
      "ĠWanting": 5834,
      "Ġsupply": 5835,
      "Ġspr": 5836,
      "Ġhorns": 5837,
      "Ġguessing": 5838,
      "Ġclassic": 5839,
      "Ġtunes": 5840,
      "Ġbubbles": 5841,
      "urally": 5842,
      "Ġyounger": 5843,
      "Ġjournal": 5844,
      "orage": 5845,
      "Ġdeter": 5846,
      "days": 5847,
      "Ġstorage": 5848,
      "indful": 5849,
      "cept": 5850,
      "Ġrings": 5851,
      "ĠBy": 5852,
      "Ġcherishing": 5853,
      "Ġdrops": 5854,
      "Ġconvenience": 5855,
      "Ġtire": 5856,
      "Ġcoins": 5857,
      "Ġclasses": 5858,
      "wor": 5859,
      "Ġstopping": 5860,
      "Ġsneezed": 5861,
      "ĠWearing": 5862,
      "Ġmessiness": 5863,
      "Ġnaturally": 5864,
      "Ġbrands": 5865,
      "Ġrequests": 5866,
      "Ġvehic": 5867,
      "Ġcitiz": 5868,
      "Ġbits": 5869,
      "Ġpractical": 5870,
      "ĠHearing": 5871,
      "Ġharmless": 5872,
      "Ġshakes": 5873,
      "Ġblooms": 5874,
      "Ġleftovers": 5875,
      "Ġstrict": 5876,
      "Ġexcuses": 5877,
      "Ġunsettle": 5878,
      "Ġinn": 5879,
      "ĠCol": 5880,
      "Ġballoon": 5881,
      "Ġbees": 5882,
      "Ġstayed": 5883,
      "Ġfutures": 5884,
      "Ġmelt": 5885,
      "Ġinnoc": 5886,
      "Ġreligions": 5887,
      "Ġsquir": 5888,
      "Ġalternatives": 5889,
      "Ġuntrustworthy": 5890,
      "Ġfav": 5891,
      "Ġstems": 5892,
      "Ġextre": 5893,
      "Ġincreases": 5894,
      "Ġjuicy": 5895,
      "Ġuntie": 5896,
      "Ġteams": 5897,
      "Ġbudgets": 5898,
      "medi": 5899,
      "Ġtwisting": 5900,
      "elf": 5901,
      "Ġfinal": 5902,
      "Ġrainb": 5903,
      "Ġimmedi": 5904,
      "Ġpouring": 5905,
      "Ġserving": 5906,
      "Ġcracks": 5907,
      "Ġallergies": 5908,
      "Ġwished": 5909,
      "Ġages": 5910,
      "ĠRunning": 5911,
      "Ġsustainable": 5912,
      "Ġcitizens": 5913,
      "Ġdismiss": 5914,
      "alog": 5915,
      "eeded": 5916,
      "Ġgroc": 5917,
      "ils": 5918,
      "Ġenvironmental": 5919,
      "Ġtrusted": 5920,
      "Ġbattle": 5921,
      "Ġfavour": 5922,
      "Ġdialog": 5923,
      "Ġdropping": 5924,
      "while": 5925,
      "Ġsteady": 5926,
      "Ġexh": 5927,
      "ightly": 5928,
      "Ġsymbolize": 5929,
      "ods": 5930,
      "Ġstub": 5931,
      "Ġperiods": 5932,
      "Ġfails": 5933,
      "Ġdiv": 5934,
      "Ġcups": 5935,
      "rition": 5936,
      "Ġcarries": 5937,
      "ĠBoth": 5938,
      "Ġbanan": 5939,
      "Ġemergencies": 5940,
      "Ġcleanup": 5941,
      "ĠSuch": 5942,
      "Ġmanaged": 5943,
      "Ġworthwhile": 5944,
      "book": 5945,
      "Ġclaim": 5946,
      "Ġstrengthens": 5947,
      "Ġexhib": 5948,
      "Ġhorrible": 5949,
      "Ġpromise": 5950,
      "Ġtradition": 5951,
      "Ġscreen": 5952,
      "Ġsandcastles": 5953,
      "Ġsauce": 5954,
      "Ġdisli": 5955,
      "akers": 5956,
      "ĠSweet": 5957,
      "Ġtouched": 5958,
      "Ġfavourite": 5959,
      "rich": 5960,
      "Ġannoyance": 5961,
      "Ġfades": 5962,
      "Ġtougher": 5963,
      "going": 5964,
      "Ġversat": 5965,
      "Ġspin": 5966,
      "Ġworkout": 5967,
      "Ġwinning": 5968,
      "ograp": 5969,
      "Ġsubject": 5970,
      "Ġawa": 5971,
      "Ġnutrition": 5972,
      "Ġthumbs": 5973,
      "Ġstroll": 5974,
      "Ġsooner": 5975,
      "Ġunfun": 5976,
      "Ġharshly": 5977,
      "ĠReg": 5978,
      "Ġdent": 5979,
      "Ġgrounded": 5980,
      "Ġcamp": 5981,
      "idence": 5982,
      "Ġwellbeing": 5983,
      "Ġfootball": 5984,
      "acy": 5985,
      "algi": 5986,
      "algia": 5987,
      "ĠAd": 5988,
      "gic": 5989,
      "Ġstretches": 5990,
      "Ġsales": 5991,
      "Ġodor": 5992,
      "Ġmisleading": 5993,
      "reg": 5994,
      "Ġsmashed": 5995,
      "Ġbravely": 5996,
      "valued": 5997,
      "sit": 5998,
      "Ġcreamy": 5999,
      "Ġnoses": 6000,
      "Ġinner": 6001,
      "Ġprofessional": 6002,
      "Ġrecall": 6003,
      "Ġfixes": 6004,
      "ank": 6005,
      "Ġhesit": 6006,
      "Ġopportunity": 6007,
      "afraid": 6008,
      "Ġrenew": 6009,
      "Ġunafraid": 6010,
      "Ġshifts": 6011,
      "ĠWill": 6012,
      "ormal": 6013,
      "Ġprotected": 6014,
      "pped": 6015,
      "Ġshouting": 6016,
      "Ġharming": 6017,
      "Ġpossibly": 6018,
      "Ġsever": 6019,
      "Ġunbright": 6020,
      "Ġintimid": 6021,
      "fying": 6022,
      "Ġscreens": 6023,
      "Ġdisasters": 6024,
      "ased": 6025,
      "Ġsake": 6026,
      "Ġhowling": 6027,
      "Ġcandle": 6028,
      "Ġunlock": 6029,
      "idents": 6030,
      "ĠSure": 6031,
      "Ġbold": 6032,
      "Ġfallen": 6033,
      "inter": 6034,
      "bled": 6035,
      "Ġyuck": 6036,
      "Ġeager": 6037,
      "Ġcracking": 6038,
      "Ġresilient": 6039,
      "Ġremarkable": 6040,
      "Ġlatest": 6041,
      "Ġpencils": 6042,
      "Ġunrecogn": 6043,
      "corn": 6044,
      "ĠDifferent": 6045,
      "Ġwasn": 6046,
      "Ġseveral": 6047,
      "Ġintimidating": 6048,
      "Ġongoing": 6049,
      "Ġlighting": 6050,
      "friendly": 6051,
      "warming": 6052,
      "ĠMist": 6053,
      "Ġfoster": 6054,
      "ancy": 6055,
      "Ġsidewal": 6056,
      "Ġsuccesses": 6057,
      "Ġsweets": 6058,
      "Ġasked": 6059,
      "ĠThunder": 6060,
      "Ġparticipate": 6061,
      "Ġsavings": 6062,
      "Ġappointment": 6063,
      "Ġgrand": 6064,
      "Ġtravelers": 6065,
      "Ġcounter": 6066,
      "Ġaccur": 6067,
      "Ġumbrella": 6068,
      "Ġviewp": 6069,
      "Ġmetals": 6070,
      "ĠGoing": 6071,
      "Ġspicy": 6072,
      "Ġchew": 6073,
      "Ġuntang": 6074,
      "what": 6075,
      "Ġgrad": 6076,
      "Ġroofs": 6077,
      "Ġwaking": 6078,
      "Ġtroubled": 6079,
      "Ġnost": 6080,
      "Ġheartwarming": 6081,
      "Ġtow": 6082,
      "ĠDressing": 6083,
      "Ġdisreg": 6084,
      "Ġpolitics": 6085,
      "Ġheated": 6086,
      "Ġrolls": 6087,
      "ĠSadness": 6088,
      "Ġhumidity": 6089,
      "Ġvivid": 6090,
      "Ġchem": 6091,
      "earching": 6092,
      "Ġfleeting": 6093,
      "lly": 6094,
      "Ġsomewhat": 6095,
      "ours": 6096,
      "Ġdisregard": 6097,
      "Ġsunflowers": 6098,
      "Ġpurposes": 6099,
      "Ġlifestyle": 6100,
      "vable": 6101,
      "Ġbiting": 6102,
      "Ġquietness": 6103,
      "sweet": 6104,
      "Ġliquids": 6105,
      "ĠMistakes": 6106,
      "Ġmuseum": 6107,
      "Ġversatile": 6108,
      "icies": 6109,
      "Ġtalents": 6110,
      "asp": 6111,
      "Ġpolicies": 6112,
      "Ġsparkle": 6113,
      "Ġdecorating": 6114,
      "Ġunsettled": 6115,
      "ĠHon": 6116,
      "Ġinvade": 6117,
      "rig": 6118,
      "ĠSleep": 6119,
      "Ġcluttered": 6120,
      "bbing": 6121,
      "Ġoneself": 6122,
      "Ġcy": 6123,
      "Ġdiscussed": 6124,
      "Ġserved": 6125,
      "Ġorig": 6126,
      "ĠSci": 6127,
      "Ġleaking": 6128,
      "ĠOpening": 6129,
      "Ġcrunchy": 6130,
      "Ġbuzzing": 6131,
      "Ġtrigger": 6132,
      "Ġenrich": 6133,
      "Ġpan": 6134,
      "Ġreceiving": 6135,
      "Ġappearing": 6136,
      "Ġbittersweet": 6137,
      "Ġburns": 6138,
      "Ġducks": 6139,
      "Ġfond": 6140,
      "Ġheights": 6141,
      "Ġamounts": 6142,
      "Ġflows": 6143,
      "Ġmend": 6144,
      "Ġdisconnected": 6145,
      "oining": 6146,
      "ĠJoining": 6147,
      "Ġwider": 6148,
      "Ġjewelry": 6149,
      "Ġmelod": 6150,
      "Ġsneezes": 6151,
      "iers": 6152,
      "Ġpopcorn": 6153,
      "Ġyucky": 6154,
      "Ġcycles": 6155,
      "born": 6156,
      "Ġproduction": 6157,
      "Ġinnocent": 6158,
      "Ġrocks": 6159,
      "Ġjudging": 6160,
      "cover": 6161,
      "Ġsof": 6162,
      "Ġappet": 6163,
      "Ġpinning": 6164,
      "let": 6165,
      "Ġpa": 6166,
      "Ġoverhead": 6167,
      "Ġleaks": 6168,
      "Ġdentist": 6169,
      "Ġsoaking": 6170,
      "Ġrises": 6171,
      "Ġshaped": 6172,
      "Ġappearances": 6173,
      "Ġdelivery": 6174,
      "Ġtopp": 6175,
      "Ġinjury": 6176,
      "Ġstockings": 6177,
      "wise": 6178,
      "Ġdiets": 6179,
      "Ġmelodies": 6180,
      "Ġwounded": 6181,
      "Ġcrushed": 6182,
      "Ġbeginning": 6183,
      "Ġcompare": 6184,
      "Ġpersonality": 6185,
      "Ġdialogue": 6186,
      "Ġenric": 6187,
      "urd": 6188,
      "Ġbeat": 6189,
      "respon": 6190,
      "Ġmedicine": 6191,
      "Ġsusp": 6192,
      "ĠEng": 6193,
      "Ġphotograp": 6194,
      "sters": 6195,
      "Ġech": 6196,
      "Ġunfor": 6197,
      "Ġjumpy": 6198,
      "Ġsimplicity": 6199,
      "Ġmelts": 6200,
      "Ġtoppings": 6201,
      "Ġsipping": 6202,
      "Ġclosing": 6203,
      "ĠSunlight": 6204,
      "Ġunmindful": 6205,
      "Ġchicken": 6206,
      "Ġcurves": 6207,
      "Ġsparks": 6208,
      "Ġsquirre": 6209,
      "Ġrelated": 6210,
      "Ġarrived": 6211,
      "Ġreass": 6212,
      "arter": 6213,
      "ĠLoud": 6214,
      "tens": 6215,
      "Ġcrossed": 6216,
      "Ġdecorate": 6217,
      "Ġcoat": 6218,
      "Ġhits": 6219,
      "Ġcomfy": 6220,
      "Ġbrown": 6221,
      "ĠSnakes": 6222,
      "Ġdisp": 6223,
      "Ġdeterm": 6224,
      "Ġvol": 6225,
      "Ġsunsets": 6226,
      "Ġemergency": 6227,
      "Ġripple": 6228,
      "ĠStress": 6229,
      "Ġexpression": 6230,
      "ĠStill": 6231,
      "capes": 6232,
      "ĠPositive": 6233,
      "lying": 6234,
      "Ġspecies": 6235,
      "Ġuntidy": 6236,
      "Ġisolated": 6237,
      "Ġappetite": 6238,
      "Ġrethink": 6239,
      "Ġshaping": 6240,
      "Ġwriters": 6241,
      "ecting": 6242,
      "Ġwashed": 6243,
      "Ġartic": 6244,
      "Ġwoke": 6245,
      "beat": 6246,
      "Ġskilled": 6247,
      "Ġeleg": 6248,
      "Ġrepeatedly": 6249,
      "ĠSearching": 6250,
      "Ġlabe": 6251,
      "Ġstubborn": 6252,
      "ĠLit": 6253,
      "Ġstat": 6254,
      "Ġgoodness": 6255,
      "Ġmatching": 6256,
      "Ġproductivity": 6257,
      "azing": 6258,
      "apid": 6259,
      "pressing": 6260,
      "Ġextreme": 6261,
      "Ġbug": 6262,
      "Ġflourish": 6263,
      "Ġdislikes": 6264,
      "ĠStret": 6265,
      "Ġbananas": 6266,
      "ened": 6267,
      "ships": 6268,
      "ums": 6269,
      "ĠDra": 6270,
      "Ġinstructions": 6271,
      "Ġrapid": 6272,
      "Ġwatering": 6273,
      "Ġsymbols": 6274,
      "ĠStretching": 6275,
      "Ġflick": 6276,
      "Ġfancy": 6277,
      "Ġtwisted": 6278,
      "ĠDrawing": 6279,
      "Ġhorror": 6280,
      "Ġfitness": 6281,
      "aught": 6282,
      "Ġsturd": 6283,
      "Ġintrig": 6284,
      "Ġdurable": 6285,
      "Ġbored": 6286,
      "Ġmisunderstood": 6287,
      "ritious": 6288,
      "ĠQuiet": 6289,
      "Ġunrecognized": 6290,
      "Ġempow": 6291,
      "Ġsetback": 6292,
      "ĠCertainly": 6293,
      "Ġpushed": 6294,
      "Ġredu": 6295,
      "Ġnutritious": 6296,
      "ĠReally": 6297,
      "Ġhappenings": 6298,
      "Ġswaying": 6299,
      "Ġchefs": 6300,
      "lph": 6301,
      "Ġfreeing": 6302,
      "ĠSoft": 6303,
      "Ġbridges": 6304,
      "Ġcaution": 6305,
      "Ġcirc": 6306,
      "Ġwomen": 6307,
      "Ġconfuse": 6308,
      "Ġsmoothies": 6309,
      "Ġthriving": 6310,
      "Ġsnowmen": 6311,
      "Ġsmarter": 6312,
      "Ġcracked": 6313,
      "Ġdecre": 6314,
      "Ġjumps": 6315,
      "Ġcomplaints": 6316,
      "Ġdrama": 6317,
      "Ġwidely": 6318,
      "Ġborrow": 6319,
      "atural": 6320,
      "Ġhowls": 6321,
      "Ġharmed": 6322,
      "Ġplease": 6323,
      "ĠRel": 6324,
      "Ġlifeless": 6325,
      "Ġuntrue": 6326,
      "Ġforces": 6327,
      "ĠWinter": 6328,
      "Ġcollective": 6329,
      "Ġentertained": 6330,
      "Ġhitting": 6331,
      "Ġconfront": 6332,
      "che": 6333,
      "table": 6334,
      "uch": 6335,
      "Ġhike": 6336,
      "Ġsalty": 6337,
      "Ġinput": 6338,
      "Ġbrakes": 6339,
      "Ġguides": 6340,
      "Ġstartle": 6341,
      "Ġspoons": 6342,
      "Ġslightly": 6343,
      "Ġsalads": 6344,
      "Ġscrat": 6345,
      "Ġattending": 6346,
      "Ġcarts": 6347,
      "roy": 6348,
      "tons": 6349,
      "Ġears": 6350,
      "Ġcruelty": 6351,
      "Ġawait": 6352,
      "seless": 6353,
      "Ġtempting": 6354,
      "Ġdestroy": 6355,
      "Ġdrains": 6356,
      "ĠAs": 6357,
      "Ġbin": 6358,
      "ĠOnly": 6359,
      "Ġexperimenting": 6360,
      "Ġmir": 6361,
      "ĠIce": 6362,
      "Ġpresents": 6363,
      "Ġparticularly": 6364,
      "Ġgradually": 6365,
      "ians": 6366,
      "Ġknown": 6367,
      "llows": 6368,
      "Ġotherwise": 6369,
      "Ġlacks": 6370,
      "Ġeconomy": 6371,
      "Ġfu": 6372,
      "Ġicy": 6373,
      "Ġbuttons": 6374,
      "Ġensuring": 6375,
      "onsider": 6376,
      "Ġworksp": 6377,
      "Ġlining": 6378,
      "Ġdisappears": 6379,
      "Ġcre": 6380,
      "Ġunforget": 6381,
      "Ġcast": 6382,
      "Ġate": 6383,
      "Ġboxes": 6384,
      "Ġdra": 6385,
      "ĠNost": 6386,
      "Ġfollows": 6387,
      "ĠPolishing": 6388,
      "ĠSail": 6389,
      "ĠPets": 6390,
      "Ġpollut": 6391,
      "Ġsale": 6392,
      "ĠCha": 6393,
      "Ġselling": 6394,
      "Ġuseless": 6395,
      "Ġbelow": 6396,
      "Ġsweater": 6397,
      "Ġtiming": 6398,
      "Ġadvancements": 6399,
      "Ġsent": 6400,
      "Ġreme": 6401,
      "Ġours": 6402,
      "Ġrushed": 6403,
      "ĠOuch": 6404,
      "Ġpurchases": 6405,
      "Ġplenty": 6406,
      "ĠMeeting": 6407,
      "Ġvac": 6408,
      "ĠColl": 6409,
      "Ġgracefully": 6410,
      "Ġtires": 6411,
      "Ġflooding": 6412,
      "ĠRegular": 6413,
      "oints": 6414,
      "Ġgreasy": 6415,
      "Ġlayer": 6416,
      "Ġwagging": 6417,
      "Ġsturdy": 6418,
      "lings": 6419,
      "Ġusers": 6420,
      "Ġcollaboration": 6421,
      "Ġviewpoints": 6422,
      "Ġunforgettable": 6423,
      "lit": 6424,
      "Ġwherever": 6425,
      "Ġcorks": 6426,
      "Ġcarriages": 6427,
      "Ġtale": 6428,
      "Ġbrainstorm": 6429,
      "Ġsets": 6430,
      "Ġunvalued": 6431,
      "Ġdeliver": 6432,
      "Ġcalled": 6433,
      "Ġsmashing": 6434,
      "ĠUs": 6435,
      "Ġintriguing": 6436,
      "Ġpiles": 6437,
      "Ġdistances": 6438,
      "Ġraises": 6439,
      "utter": 6440,
      "ĠPic": 6441,
      "Ġhalf": 6442,
      "ĠEmot": 6443,
      "Ġroute": 6444,
      "Ġfestive": 6445,
      "Ġchasing": 6446,
      "Ġsounded": 6447,
      "Ġarr": 6448,
      "ĠCo": 6449,
      "Ġcooks": 6450,
      "Ġdocument": 6451,
      "ĠPicn": 6452,
      "Ġevolve": 6453,
      "Ġapproaching": 6454,
      "Ġunseen": 6455,
      "Ġboil": 6456,
      "Ġtracks": 6457,
      "Ġcoin": 6458,
      "Ġexchanges": 6459,
      "zes": 6460,
      "Ġrepresentatives": 6461,
      "Ġhaun": 6462,
      "Ġmoisture": 6463,
      "ĠHeal": 6464,
      "Ġexpand": 6465,
      "Ġcowork": 6466,
      "Ġrusty": 6467,
      "icals": 6468,
      "Ġpuppy": 6469,
      "Ġsuspense": 6470,
      "issed": 6471,
      "Ġgap": 6472,
      "Ġdaylight": 6473,
      "Ġthreads": 6474,
      "ikes": 6475,
      "making": 6476,
      "ete": 6477,
      "Ġheld": 6478,
      "Ġsoldiers": 6479,
      "urous": 6480,
      "Ġdef": 6481,
      "Ġeducating": 6482,
      "Ġlayers": 6483,
      "Ġchemicals": 6484,
      "Ġmanner": 6485,
      "Ġlosses": 6486,
      "ĠPicnics": 6487,
      "Ġbak": 6488,
      "imate": 6489,
      "ĠSil": 6490,
      "Ġphones": 6491,
      "Ġupbeat": 6492,
      "belie": 6493,
      "Ġstillness": 6494,
      "versity": 6495,
      "Ġmult": 6496,
      "isies": 6497,
      "Ġtastier": 6498,
      "Ġtomat": 6499,
      "algic": 6500,
      "Ġwarming": 6501,
      "Ġadventurous": 6502,
      "Ġguidelines": 6503,
      "Ġmales": 6504,
      "opes": 6505,
      "Ġweights": 6506,
      "Ġadvant": 6507,
      "hest": 6508,
      "Ġlightens": 6509,
      "Ġresolut": 6510,
      "Ġdrift": 6511,
      "Ġcalls": 6512,
      "itching": 6513,
      "usions": 6514,
      "Ġinfluenc": 6515,
      "oad": 6516,
      "riage": 6517,
      "ĠWhile": 6518,
      "Ġbacky": 6519,
      "ĠEmotions": 6520,
      "Ġcrashing": 6521,
      "Ġgaps": 6522,
      "Ġuplifted": 6523,
      "Ġreduces": 6524,
      "Ġlifet": 6525,
      "Ġtears": 6526,
      "Ġbounce": 6527,
      "Ġgroceries": 6528,
      "Ġauthors": 6529,
      "Ġattacks": 6530,
      "Ġdocuments": 6531,
      "Ġimmediately": 6532,
      "Ġuntangle": 6533,
      "Ġindividual": 6534,
      "Ġdestination": 6535,
      "ef": 6536,
      "Ġscat": 6537,
      "Ġperm": 6538,
      "Ġconsum": 6539,
      "Ġdevelopments": 6540,
      "ship": 6541,
      "ruly": 6542,
      "Ġchecks": 6543,
      "Ġecosystems": 6544,
      "aked": 6545,
      "Ġcalms": 6546,
      "Ġburdensome": 6547,
      "umping": 6548,
      "Ġcourse": 6549,
      "lphins": 6550,
      "Ġrock": 6551,
      "ĠWouldn": 6552,
      "Ġoffe": 6553,
      "Ġvent": 6554,
      "Ġmode": 6555,
      "urning": 6556,
      "Ġedges": 6557,
      "Ġplot": 6558,
      "agious": 6559,
      "Ġcontagious": 6560,
      "Ġlifetime": 6561,
      "Ġhowever": 6562,
      "ĠTeam": 6563,
      "onven": 6564,
      "Ġlandscapes": 6565,
      "Ġelements": 6566,
      "ĠLone": 6567,
      "Ġjudgments": 6568,
      "Ġirritation": 6569,
      "Ġgrasp": 6570,
      "Ġbothered": 6571,
      "Ġtightness": 6572,
      "utting": 6573,
      "Ġislands": 6574,
      "Ġinterrupts": 6575,
      "Ġexperiments": 6576,
      "Ġpurchase": 6577,
      "Ġpolite": 6578,
      "ĠLoneliness": 6579,
      "Ġinstantly": 6580,
      "Ġhaunted": 6581,
      "Ġdrawn": 6582,
      "essions": 6583,
      "Ġemotionally": 6584,
      "cre": 6585,
      "Ġpersist": 6586,
      "Ġunneeded": 6587,
      "Ġadapting": 6588,
      "ĠCher": 6589,
      "ounting": 6590,
      "Ġleftover": 6591,
      "Ġcafe": 6592,
      "Ġsculptures": 6593,
      "ĠHealing": 6594,
      "Ġfrightens": 6595,
      "Ġmoldy": 6596,
      "Ġinconven": 6597,
      "Ġaddressing": 6598,
      "Ġhighlights": 6599,
      "forward": 6600,
      "responsible": 6601,
      "hand": 6602,
      "Ġant": 6603,
      "ĠLight": 6604,
      "Ġdeepen": 6605,
      "Ġrefuse": 6606,
      "Ġdrained": 6607,
      "Ġlabels": 6608,
      "Ġdeb": 6609,
      "ĠSailing": 6610,
      "dom": 6611,
      "Ġpushes": 6612,
      "els": 6613,
      "Ġmusical": 6614,
      "Ġpressures": 6615,
      "ĠDust": 6616,
      "Ġcoast": 6617,
      "Ġdressed": 6618,
      "Ġsmelly": 6619,
      "Ġtowns": 6620,
      "ĠSummer": 6621,
      "Ġnormally": 6622,
      "ĠTruly": 6623,
      "Ġstraightforward": 6624,
      "iders": 6625,
      "Ġacceptance": 6626,
      "Ġwedding": 6627,
      "ĠLau": 6628,
      "nees": 6629,
      "Ġstuffy": 6630,
      "Ġknees": 6631,
      "Ġfriendlier": 6632,
      "Ġcontact": 6633,
      "oyal": 6634,
      "ĠHiding": 6635,
      "ĠMom": 6636,
      "Ġincompl": 6637,
      "Ġgi": 6638,
      "ĠRainy": 6639,
      "Ġstatue": 6640,
      "ĠMoments": 6641,
      "uts": 6642,
      "riers": 6643,
      "ĠFixing": 6644,
      "Ġutens": 6645,
      "Ġbedtime": 6646,
      "Ġsandwich": 6647,
      "Ġclaims": 6648,
      "Ġvit": 6649,
      "Ġcollects": 6650,
      "Ġmenu": 6651,
      "Ġbarriers": 6652,
      "Ġfearfully": 6653,
      "Ġtying": 6654,
      "ĠEngaging": 6655,
      "Ġsuit": 6656,
      "Ġsmelled": 6657,
      "Ġrainbow": 6658,
      "Ġtrails": 6659,
      "dered": 6660,
      "Ġlocks": 6661,
      "Ġcrumbs": 6662,
      "Ġattic": 6663,
      "Ġcomput": 6664,
      "fl": 6665,
      "ĠSetting": 6666,
      "ugg": 6667,
      "Ġyog": 6668,
      "arks": 6669,
      "Ġintern": 6670,
      "Ġpolished": 6671,
      "Ġphoto": 6672,
      "Ġbackyard": 6673,
      "Ġincomplete": 6674,
      "Ġexchanging": 6675,
      "Ġporters": 6676,
      "Ġabsor": 6677,
      "ĠCherishing": 6678,
      "Ġdiversity": 6679,
      "Ġappli": 6680,
      "Ġdownt": 6681,
      "ĠTeamwork": 6682,
      "inal": 6683,
      "ĠTrees": 6684,
      "Ġgrill": 6685,
      "Ġcomparisons": 6686,
      "Ġvitam": 6687,
      "lves": 6688,
      "Ġcheaper": 6689,
      "Ġknives": 6690,
      "Ġworkspace": 6691,
      "Ġexce": 6692,
      "Ġopenness": 6693,
      "Ġdreaming": 6694,
      "Ġeaten": 6695,
      "Ġident": 6696,
      "ĠHowever": 6697,
      "Ġduties": 6698,
      "chan": 6699,
      "ghing": 6700,
      "Ġthree": 6701,
      "Ġwhisp": 6702,
      "Ġmispl": 6703,
      "Ġpulled": 6704,
      "Ġstrangely": 6705,
      "Ġunfolds": 6706,
      "ĠLaughing": 6707,
      "Ġdowntown": 6708,
      "Ġmas": 6709,
      "Ġmechan": 6710,
      "Ġtheme": 6711,
      "irer": 6712,
      "ructive": 6713,
      "Ġsoups": 6714,
      "itch": 6715,
      "ĠFolding": 6716,
      "Ġrecommendations": 6717,
      "Ġfairer": 6718,
      "Ġbehaviour": 6719,
      "Ġshutting": 6720,
      "Ġunnormal": 6721,
      "Ġelectric": 6722,
      "Ġvehicles": 6723,
      "Ġutensils": 6724,
      "Ġob": 6725,
      "Ġheartb": 6726,
      "Ġclassroom": 6727,
      "Ġshifting": 6728,
      "ĠAsking": 6729,
      "Ġgems": 6730,
      "ĠCuri": 6731,
      "Ġaccepted": 6732,
      "Ġbirthdays": 6733,
      "Ġvanish": 6734,
      "Ġloyal": 6735,
      "Ġgear": 6736,
      "allow": 6737,
      "Ġtrays": 6738,
      "qual": 6739,
      "Ġblades": 6740,
      "Ġsnowy": 6741,
      "Ġunfulfilling": 6742,
      "ote": 6743,
      "Ġconclusions": 6744,
      "ĠScience": 6745,
      "Ġsadd": 6746,
      "Ġburdened": 6747,
      "ĠUnc": 6748,
      "Ġgesture": 6749,
      "Ġbeds": 6750,
      "Ġinternet": 6751,
      "phan": 6752,
      "Ġsidewalk": 6753,
      "ĠMore": 6754,
      "Ġstored": 6755,
      "Ġbaths": 6756,
      "Ġoffered": 6757,
      "Ġlakes": 6758,
      "Ġtreatments": 6759,
      "Ġpretend": 6760,
      "Ġcrawl": 6761,
      "works": 6762,
      "loy": 6763,
      "Ġlinked": 6764,
      "Ġfake": 6765,
      "Ġinvent": 6766,
      "Ġvaluing": 6767,
      "Ġspilling": 6768,
      "Ġads": 6769,
      "Ġvegetable": 6770,
      "Ġpanic": 6771,
      "Ġsup": 6772,
      "Ġglue": 6773,
      "cons": 6774,
      "ext": 6775,
      "Ġmapping": 6776,
      "Ġsoak": 6777,
      "Ġselves": 6778,
      "Ġeco": 6779,
      "Ġdisaster": 6780,
      "bal": 6781,
      "ĠSc": 6782,
      "ĠCuriosity": 6783,
      "racking": 6784,
      "uming": 6785,
      "Ġstove": 6786,
      "Ġactual": 6787,
      "Ġdaisies": 6788,
      "Ġemploy": 6789,
      "Ġconsistent": 6790,
      "eag": 6791,
      "Ġtip": 6792,
      "Ġnecks": 6793,
      "Ġscattered": 6794,
      "llent": 6795,
      "Ġpe": 6796,
      "ĠSitting": 6797,
      "Ġsignals": 6798,
      "Ġstrategy": 6799,
      "Ġnurturing": 6800,
      "ĠMon": 6801,
      "Ġcolleag": 6802,
      "Ġfollowed": 6803,
      "Ġforecasts": 6804,
      "Ġtrusting": 6805,
      "Ġcompanionship": 6806,
      "board": 6807,
      "Ġpaid": 6808,
      "erful": 6809,
      "Ġcrazy": 6810,
      "Ġaccounts": 6811,
      "Ġthicker": 6812,
      "Ġlocation": 6813,
      "Ġdw": 6814,
      "Ġdisorganized": 6815,
      "Ġplanets": 6816,
      "ĠThese": 6817,
      "flow": 6818,
      "ĠFlying": 6819,
      "ĠRest": 6820,
      "Ġconsume": 6821,
      "Ġsparkling": 6822,
      "Ġwins": 6823,
      "ĠPerfect": 6824,
      "Ġpuzzle": 6825,
      "Ġunstable": 6826,
      "Ġassistance": 6827,
      "Ġunderest": 6828,
      "Ġcharming": 6829,
      "Ġloses": 6830,
      "Ġbrushes": 6831,
      "Ġunthinking": 6832,
      "Ġrustling": 6833,
      "ĠAlso": 6834,
      "Ġly": 6835,
      "atable": 6836,
      "Ġremed": 6837,
      "Ġachieving": 6838,
      "Ġleadership": 6839,
      "Ġtraits": 6840,
      "ĠNostalgia": 6841,
      "Ġforests": 6842,
      "Ġpost": 6843,
      "Ġwandering": 6844,
      "sty": 6845,
      "Ġshown": 6846,
      "Ġgreatest": 6847,
      "ĠFam": 6848,
      "Ġneatly": 6849,
      "ey": 6850,
      "Ġripe": 6851,
      "oppers": 6852,
      "Ġdramatic": 6853,
      "Ġexplanation": 6854,
      "Ġconsumers": 6855,
      "Ġsilent": 6856,
      "Ġbitterness": 6857,
      "Ġwaving": 6858,
      "ĠFamily": 6859,
      "ĠAc": 6860,
      "Ġcheerfulness": 6861,
      "Ġdigital": 6862,
      "Ġpillows": 6863,
      "icked": 6864,
      "Ġsmoothie": 6865,
      "ĠTrusting": 6866,
      "Ġscarf": 6867,
      "Ġsoaked": 6868,
      "ĠRed": 6869,
      "Ġdemands": 6870,
      "Ġsetbacks": 6871,
      "Ġshoppers": 6872,
      "Ġsnowball": 6873,
      "Ġcrash": 6874,
      "Ġincreased": 6875,
      "Ġjam": 6876,
      "Ġmisuse": 6877,
      "Ġmarriage": 6878,
      "Ġfurry": 6879,
      "ashes": 6880,
      "ĠSoup": 6881,
      "ivating": 6882,
      "Ġblame": 6883,
      "ĠLiving": 6884,
      "Ġspoke": 6885,
      "Ġunche": 6886,
      "Ġdisturbed": 6887,
      "ĠOrgan": 6888,
      "acks": 6889,
      "Ġvisibility": 6890,
      "ighed": 6891,
      "roving": 6892,
      "Ġphysically": 6893,
      "Ġachievement": 6894,
      "ĠHonesty": 6895,
      "Ġlyrics": 6896,
      "ples": 6897,
      "Ġbackup": 6898,
      "anned": 6899,
      "Ġstartled": 6900,
      "Ġstrikes": 6901,
      "Ġmisplaced": 6902,
      "Ġdental": 6903,
      "Ġharves": 6904,
      "Ġairport": 6905,
      "ressed": 6906,
      "ĠImproving": 6907,
      "Ġweighed": 6908,
      "ĠSur": 6909,
      "Ġtrap": 6910,
      "Ġsheets": 6911,
      "Ġtighter": 6912,
      "Ġpollen": 6913,
      "Ġecosystem": 6914,
      "Ġcomedy": 6915,
      "Ġresolution": 6916,
      "Ġpreca": 6917,
      "Ġprivacy": 6918,
      "ĠJoy": 6919,
      "Ġsaddest": 6920,
      "ron": 6921,
      "ĠEnding": 6922,
      "Ġexcellent": 6923,
      "esents": 6924,
      "Ġcen": 6925,
      "Ġheating": 6926,
      "Ġadvantage": 6927,
      "Ġunequal": 6928,
      "Ġresolved": 6929,
      "Ġaccomplishment": 6930,
      "Ġcases": 6931,
      "Ġhills": 6932,
      "Ġdeadline": 6933,
      "umst": 6934,
      "Ġrepresents": 6935,
      "Ġgraceful": 6936,
      "Ġcircumst": 6937,
      "Ġfunctions": 6938,
      "ĠGl": 6939,
      "Ġthunderstorm": 6940,
      "ĠEverything": 6941,
      "Ġpuzzles": 6942,
      "Ġfocuses": 6943,
      "Ġtraditional": 6944,
      "Ġplaced": 6945,
      "Ġtag": 6946,
      "Ġwaited": 6947,
      "Ġsoftness": 6948,
      "ission": 6949,
      "Ġdisappointments": 6950,
      "Ġunderestimate": 6951,
      "Ġscore": 6952,
      "Ġcalling": 6953,
      "Ġunpredictability": 6954,
      "ĠSmiling": 6955,
      "Ġclash": 6956,
      "Ġfrightful": 6957,
      "Ġhistories": 6958,
      "Ġjackets": 6959,
      "Ġtaught": 6960,
      "Ġunener": 6961,
      "Ġconfidently": 6962,
      "Ġbakery": 6963,
      "Ġhaven": 6964,
      "Ġrelatable": 6965,
      "Ġreacting": 6966,
      "ĠBlue": 6967,
      "Ġprecautions": 6968,
      "eaks": 6969,
      "Ġtab": 6970,
      "Ġshells": 6971,
      "Ġpresented": 6972,
      "rove": 6973,
      "alling": 6974,
      "ppiness": 6975,
      "Ġbrushing": 6976,
      "Ġnostalgic": 6977,
      "Ġcircumstances": 6978,
      "stering": 6979,
      "ĠSimpl": 6980,
      "Ġunreal": 6981,
      "Ġgenres": 6982,
      "load": 6983,
      "atience": 6984,
      "ĠExpressing": 6985,
      "Ġvisible": 6986,
      "Ġreacts": 6987,
      "ĠRespecting": 6988,
      "Ġties": 6989,
      "ĠYesterday": 6990,
      "though": 6991,
      "depend": 6992,
      "ieties": 6993,
      "ĠStitching": 6994,
      "Ġrestful": 6995,
      "cient": 6996,
      "ĠWh": 6997,
      "Ġoverly": 6998,
      "Ġlifted": 6999,
      "Ġignores": 7000,
      "Ġeducational": 7001,
      "Ġballoons": 7002,
      "rop": 7003,
      "Ġfloors": 7004,
      "Ġpleasantly": 7005,
      "ĠGrow": 7006,
      "Ġunpredictably": 7007,
      "Ġsquirrels": 7008,
      "eria": 7009,
      "Ġunconnected": 7010,
      "Ġcrisp": 7011,
      "Ġpowerless": 7012,
      "Ġmindfulness": 7013,
      "ane": 7014,
      "Ġshy": 7015,
      "Ġtongues": 7016,
      "Ġexplanations": 7017,
      "Ġhonor": 7018,
      "Ġterri": 7019,
      "Ġworkload": 7020,
      "caping": 7021,
      "enic": 7022,
      "Ġthoughtfully": 7023,
      "Ġservants": 7024,
      "Ġinnovation": 7025,
      "Ġbending": 7026,
      "Ġalarm": 7027,
      "Ġstartling": 7028,
      "Ġbackgrounds": 7029,
      "Ġgiant": 7030,
      "Ġheartbreaking": 7031,
      "Ġnations": 7032,
      "Ġheading": 7033,
      "Ġsugary": 7034,
      "Ġwea": 7035,
      "Ġfailure": 7036,
      "Ġpermission": 7037,
      "vent": 7038,
      "vious": 7039,
      "Ġmember": 7040,
      "ĠFl": 7041,
      "Ġjoined": 7042,
      "Ġobvious": 7043,
      "ooks": 7044,
      "Ġresolving": 7045,
      "Ġgreet": 7046,
      "Ġelegant": 7047,
      ".[/": 7048,
      "oving": 7049,
      "Ġfier": 7050,
      "Ġframes": 7051,
      "Ġbloss": 7052,
      "Ġpasting": 7053,
      "Ġdrawers": 7054,
      "Ġcomputer": 7055,
      "Ġmail": 7056,
      "icky": 7057,
      "Ġcoc": 7058,
      "Ġunplanned": 7059,
      "ĠCollecting": 7060,
      "Ġacted": 7061,
      "ĠBal": 7062,
      "Ġquestioning": 7063,
      "ĠChocolate": 7064,
      "Ġfailing": 7065,
      "Ġfondly": 7066,
      "happy": 7067,
      "Ġloop": 7068,
      "Ġdetermination": 7069,
      "ĠHealthy": 7070,
      "pell": 7071,
      "ĠSending": 7072,
      "ĠAcknow": 7073,
      "Ġplanted": 7074,
      "Ġstrangers": 7075,
      "Ġaccomplished": 7076,
      "Ġinconvenient": 7077,
      "lt": 7078,
      "nel": 7079,
      "eased": 7080,
      "Ġcouldn": 7081,
      "Ġpresenting": 7082,
      "Ġbathroom": 7083,
      "Ġsailors": 7084,
      "Ġdisappearing": 7085,
      "Ġuncheerful": 7086,
      "Ġindepend": 7087,
      "ĠDeep": 7088,
      "Ġbuses": 7089,
      "Ġpersonalities": 7090,
      "Ġfestiv": 7091,
      "Ġsoar": 7092,
      "Ġran": 7093,
      "Ġcoz": 7094,
      "nier": 7095,
      "aining": 7096,
      "Ġsafest": 7097,
      "Ġmirror": 7098,
      "hus": 7099,
      "Ġzones": 7100,
      "husi": 7101,
      "Ġlazy": 7102,
      "Ġendlessly": 7103,
      "Ġdisagreement": 7104,
      "Ġperceive": 7105,
      "Ġfierce": 7106,
      "chy": 7107,
      "Ġancient": 7108,
      "Ġspoils": 7109,
      "Ġdecrease": 7110,
      "cepts": 7111,
      "Ġconcepts": 7112,
      "Ġthous": 7113,
      "Ġcomforted": 7114,
      "ĠCon": 7115,
      "keys": 7116,
      "Ġpromised": 7117,
      "Ġunlikely": 7118,
      "Ġnurture": 7119,
      "Ġeasing": 7120,
      "Ġdistressing": 7121,
      "Ġdirtiness": 7122,
      "Ġearn": 7123,
      "adget": 7124,
      "Ġexpressions": 7125,
      "Ġmothers": 7126,
      "Ġcritical": 7127,
      "inform": 7128,
      "Ġgadget": 7129,
      "ĠAut": 7130,
      "Ġunconf": 7131,
      "Ġembarrassed": 7132,
      "ĠMonkeys": 7133,
      "Ġdolphins": 7134,
      "ĠCould": 7135,
      "ĠLast": 7136,
      "'ve": 7137,
      "rance": 7138,
      "Ġprotective": 7139,
      "Ġrelieved": 7140,
      "Ġaccurate": 7141,
      "Ġvitamins": 7142,
      "Ġlearners": 7143,
      "Ġfostering": 7144,
      "ĠPlants": 7145,
      "ĠJumping": 7146,
      "Ġdragging": 7147,
      "Ġlisteners": 7148,
      "Ġadorable": 7149,
      "ĠConf": 7150,
      "ĠSticky": 7151,
      "ĠBooks": 7152,
      "Ġpetals": 7153,
      "Ġurgent": 7154,
      "Ġslopes": 7155,
      "Ġwisdom": 7156,
      "Ġcenter": 7157,
      "Ġrespectfully": 7158,
      "ancakes": 7159,
      "Ġbreezes": 7160,
      "Ġfitting": 7161,
      "Ġfaith": 7162,
      "covering": 7163,
      "wracking": 7164,
      "ulations": 7165,
      "Ġunexcited": 7166,
      "Ġsplash": 7167,
      "Ġtone": 7168,
      "Ġforks": 7169,
      "Ġskirts": 7170,
      "Ġcoverage": 7171,
      "Ġwars": 7172,
      "Ġstained": 7173,
      "etry": 7174,
      "Ġalthough": 7175,
      "Ġappliances": 7176,
      "itar": 7177,
      "Ġfrost": 7178,
      "ĠMixing": 7179,
      "aste": 7180,
      "Ġrewarded": 7181,
      "ĠKnow": 7182,
      "Ġterm": 7183,
      "Ġcoughs": 7184,
      "Ġunnatural": 7185,
      "cl": 7186,
      "Ġpiled": 7187,
      "Ġcommunicating": 7188,
      "Ġdamaging": 7189,
      "ĠSnacks": 7190,
      "Ġunconfident": 7191,
      "ĠWool": 7192,
      "Ġunworthy": 7193,
      "Ġtrained": 7194,
      "Ġthreatened": 7195,
      "ĠColor": 7196,
      "Ġsparkles": 7197,
      "Ġoils": 7198,
      "Ġrhythms": 7199,
      "Ġbench": 7200,
      "ĠAcknowledging": 7201,
      "catching": 7202,
      "Ġcanceled": 7203,
      "ooming": 7204,
      "Ġache": 7205,
      "Ġsorted": 7206,
      "Ġnets": 7207,
      "ĠSe": 7208,
      "ĠCotton": 7209,
      "Ġwrapp": 7210,
      "ĠHot": 7211,
      "Ġbrand": 7212,
      "Ġbacks": 7213,
      "ĠLocking": 7214,
      "Ġenriches": 7215,
      "Ġsunr": 7216,
      "lessly": 7217,
      "Ġdesigners": 7218,
      "Ġserves": 7219,
      "Ġgrap": 7220,
      "Ġcross": 7221,
      "ĠBreat": 7222,
      "Ġadvoc": 7223,
      "Ġcomplaining": 7224,
      "Ġvaried": 7225,
      "Ġgreed": 7226,
      "Ġsleepy": 7227,
      "Ġthoughtfulness": 7228,
      "ĠCleanliness": 7229,
      "Ġunprofessional": 7230,
      "Ġnap": 7231,
      "Ġslowing": 7232,
      "ĠTrave": 7233,
      "Ġterrifying": 7234,
      "Ġung": 7235,
      "Ġstood": 7236,
      "ĠSat": 7237,
      "Ġpositions": 7238,
      "Ġfruity": 7239,
      "Ġtends": 7240,
      "Ġacknowledg": 7241,
      "Ġcouples": 7242,
      "Ġtables": 7243,
      "ĠBreathing": 7244,
      "ĠDancing": 7245,
      "Ġamaze": 7246,
      "Ġtaller": 7247,
      "Ġsignal": 7248,
      "ĠFeelings": 7249,
      "Ġgarage": 7250,
      "ĠMapping": 7251,
      "Ġskip": 7252,
      "Ġguitar": 7253,
      "Ġballs": 7254,
      "Ġsmelling": 7255,
      "Ġroutes": 7256,
      "Ġchairs": 7257,
      "Ġpolluted": 7258,
      "Ġconstructive": 7259,
      "Ġingredient": 7260,
      "ĠGloom": 7261,
      "Ġcoughing": 7262,
      "Ġsculpture": 7263,
      "Ġovens": 7264,
      "phants": 7265,
      "fulness": 7266,
      "Ġsunnier": 7267,
      "Ġavoided": 7268,
      "Ġcountryside": 7269,
      "Ġgolden": 7270,
      "Ġflexibility": 7271,
      "Ġabsorb": 7272,
      "Ġmechanic": 7273,
      "ĠUncertain": 7274,
      "Ġpreserving": 7275,
      "Ġrarely": 7276,
      "Ġfuel": 7277,
      "ĠDream": 7278,
      "Ġafternoons": 7279,
      "Ġarrange": 7280,
      "ĠSatur": 7281,
      "ĠGloomy": 7282,
      "Ġsits": 7283,
      "Ġcrushing": 7284,
      "ption": 7285,
      "Ġsuccessfully": 7286,
      "Ġenergizing": 7287,
      "Ġblew": 7288,
      "ĠSurpris": 7289,
      "ism": 7290,
      "Ġchip": 7291,
      "anging": 7292,
      "Ġminor": 7293,
      "Ġtested": 7294,
      "Ġhumanity": 7295,
      "Ġcompassionate": 7296,
      "ĠDon": 7297,
      "mmakers": 7298,
      "Ġincludes": 7299,
      "ĠMov": 7300,
      "ges": 7301,
      "man": 7302,
      "Ġordered": 7303,
      "Ġswing": 7304,
      "Ġfoggy": 7305,
      "Ġjumped": 7306,
      "Ġcloths": 7307,
      "fare": 7308,
      "ian": 7309,
      "Ġroses": 7310,
      "Ġdecides": 7311,
      "Ġbudgeting": 7312,
      "onsiderate": 7313,
      "ĠBalancing": 7314,
      "Ġbeside": 7315,
      "Ġembarrass": 7316,
      "Ġmessed": 7317,
      "Ġbursts": 7318,
      "Ġtid": 7319,
      "ĠHu": 7320,
      "Ġdaytime": 7321,
      "ĠFriendships": 7322,
      "Ġblossom": 7323,
      "Ġcolours": 7324,
      "cooked": 7325,
      "Ġcap": 7326,
      "Ġhell": 7327,
      "Ġwelfare": 7328,
      "Ġemployees": 7329,
      "hable": 7330,
      "ĠWho": 7331,
      "Ġrob": 7332,
      "Ġpassions": 7333,
      "Ġcultural": 7334,
      "ĠSaturday": 7335,
      "Ġhandy": 7336,
      "Ġarchite": 7337,
      "otally": 7338,
      "ĠTotally": 7339,
      "accept": 7340,
      "rops": 7341,
      "Ġpink": 7342,
      "ĠYet": 7343,
      "Ġsod": 7344,
      "Ġunused": 7345,
      "Ġcere": 7346,
      "Ġgaining": 7347,
      "Ġhello": 7348,
      "Ġlie": 7349,
      "Ġoverwhelm": 7350,
      "Ġvision": 7351,
      "Ġlimiting": 7352,
      "Ġbutterfly": 7353,
      "unte": 7354,
      "ĠMovies": 7355,
      "ware": 7356,
      "Ġtimely": 7357,
      "Ġcoldness": 7358,
      "Ġdisplays": 7359,
      "Ġthreats": 7360,
      "ĠImprove": 7361,
      "Ġet": 7362,
      "ddings": 7363,
      "Ġfilmmakers": 7364,
      "Ġcozier": 7365,
      "Ġweddings": 7366,
      "ĠRu": 7367,
      "Ġswings": 7368,
      "ĠBu": 7369,
      "Ġindustries": 7370,
      "Ġupdated": 7371,
      "olling": 7372,
      "Ġbank": 7373,
      "Ġartistic": 7374,
      "lasting": 7375,
      "Ġtoot": 7376,
      "Ġmonsters": 7377,
      "Ġpromising": 7378,
      "Ġcaptures": 7379,
      "Ġenhances": 7380,
      "Ġattended": 7381,
      "Ġbikes": 7382,
      "Ġenlight": 7383,
      "Ġcoworkers": 7384,
      "information": 7385,
      "nds": 7386,
      "Ġfindings": 7387,
      "Ġwines": 7388,
      "Ġcomplexity": 7389,
      "Ġraind": 7390,
      "Ġstriking": 7391,
      "Ġcounting": 7392,
      "ĠHorses": 7393,
      "mbling": 7394,
      "ĠCows": 7395,
      "ĠBer": 7396,
      "Ġhund": 7397,
      "water": 7398,
      "Ġweal": 7399,
      "Ġpancakes": 7400,
      "att": 7401,
      "Ġchills": 7402,
      "Ġfestivals": 7403,
      "Ġairpl": 7404,
      "Ġslipped": 7405,
      "Ġheighten": 7406,
      "ĠUncertainty": 7407,
      "Ġglance": 7408,
      "Ġhangs": 7409,
      "Ġappeal": 7410,
      "Ġhomemade": 7411,
      "ĠUser": 7412,
      "aising": 7413,
      "sen": 7414,
      "vere": 7415,
      "bered": 7416,
      "Ġwrap": 7417,
      "Ġexplored": 7418,
      "Ġunhappiness": 7419,
      "Ġecho": 7420,
      "Ġport": 7421,
      "Ġvet": 7422,
      "ĠRecogn": 7423,
      "Ġgenerally": 7424,
      "Ġbelonging": 7425,
      "Ġcouch": 7426,
      "ĠOrganizing": 7427,
      "Ġraindrops": 7428,
      "aming": 7429,
      "ĠRec": 7430,
      "mbered": 7431,
      "ĠLeather": 7432,
      "ĠSmoking": 7433,
      "ĠAdvent": 7434,
      "ex": 7435,
      "oa": 7436,
      "Ġairlines": 7437,
      "Ġinsight": 7438,
      "Ġbrief": 7439,
      "Ġoriginal": 7440,
      "Ġsoda": 7441,
      "nam": 7442,
      "ĠTesting": 7443,
      "Ġsoggy": 7444,
      "ĠBrighter": 7445,
      "hill": 7446,
      "osal": 7447,
      "Ġbeats": 7448,
      "Ġboosts": 7449,
      "Ġdemanding": 7450,
      "Ġorders": 7451,
      "Ġthoughtlessly": 7452,
      "Ġvolunte": 7453,
      "gress": 7454,
      "Ġsou": 7455,
      "Ġnests": 7456,
      "osen": 7457,
      "ĠRaising": 7458,
      "Ġinconsiderate": 7459,
      "Ġsearched": 7460,
      "Ġvastness": 7461,
      "Ġremembered": 7462,
      "Ġhealthcare": 7463,
      "Ġticks": 7464,
      "Ġcameras": 7465,
      "ĠRelax": 7466,
      "Ġtechnologies": 7467,
      "Ġfle": 7468,
      "usive": 7469,
      "Ġaffection": 7470,
      "Ġnoticeable": 7471,
      "Ġdegrees": 7472,
      "Ġflew": 7473,
      "Ġuser": 7474,
      "Ġchewing": 7475,
      "Ġharmonious": 7476,
      "ĠDiscovering": 7477,
      "Ġarticle": 7478,
      "ĠLittle": 7479,
      "pro": 7480,
      "ĠPatience": 7481,
      "Ġfamous": 7482,
      "Ġimpressions": 7483,
      "Ġenlightening": 7484,
      "het": 7485,
      "Ġlighthearted": 7486,
      "Ġwrote": 7487,
      "ĠPlanting": 7488,
      "hygi": 7489,
      "Ġmath": 7490,
      "Ġcookie": 7491,
      "belief": 7492,
      "hygienic": 7493,
      "eats": 7494,
      "tering": 7495,
      "ĠMoney": 7496,
      "Ġmisinformation": 7497,
      "ĠOut": 7498,
      "Ġmining": 7499,
      "Ġspinning": 7500,
      "ese": 7501,
      "irty": 7502,
      "ases": 7503,
      "Ġshower": 7504,
      "aws": 7505,
      "Ġincident": 7506,
      "Ġcheeses": 7507,
      "Ġarriving": 7508,
      "Ġpreserve": 7509,
      "Ġclu": 7510,
      "Ġslice": 7511,
      "Ġcostly": 7512,
      "Ġperceptions": 7513,
      "racing": 7514,
      "Ġnest": 7515,
      "Ġappeared": 7516,
      "Ġfoolishly": 7517,
      "Ġpave": 7518,
      "ĠMess": 7519,
      "Ġchosen": 7520,
      "mother": 7521,
      "bbed": 7522,
      "io": 7523,
      "Ġsevere": 7524,
      "Ġrolled": 7525,
      "Ġtune": 7526,
      "ĠCe": 7527,
      "Ġcritically": 7528,
      "Ġsip": 7529,
      "Ġdate": 7530,
      "Ġstale": 7531,
      "Ġwillingness": 7532,
      "ĠColorful": 7533,
      "lebrat": 7534,
      "Ġdismissed": 7535,
      "we": 7536,
      "ĠPeace": 7537,
      "Ġlived": 7538,
      "Ġsnowfl": 7539,
      "Ġpoetry": 7540,
      "Ġrapidly": 7541,
      "ĠHumor": 7542,
      "Ġfeather": 7543,
      "Ġdy": 7544,
      "Ġpacked": 7545,
      "ĠYellow": 7546,
      "ooth": 7547,
      "ppies": 7548,
      "Ġprisons": 7549,
      "Ġcling": 7550,
      "Ġillnesses": 7551,
      "Ġrecycled": 7552,
      "Ġsuper": 7553,
      "Ġunhygienic": 7554,
      "Ġdisbelief": 7555,
      "Ġstubbed": 7556,
      "Ġmisty": 7557,
      "Ġconcerts": 7558,
      "Ġsofa": 7559,
      "Ġremedies": 7560,
      "Ġwealth": 7561,
      "ĠCelebrat": 7562,
      "hlet": 7563,
      "ĠWater": 7564,
      "Ġathlet": 7565,
      "Ġblocks": 7566,
      "Ġgreener": 7567,
      "Ġgrandmother": 7568,
      "Ġkicked": 7569,
      "Ġselfishly": 7570,
      "Ġupon": 7571,
      "ĠParks": 7572,
      "Ġperformers": 7573,
      "Ġovershadowed": 7574,
      "Ġwrappers": 7575,
      "Ġsession": 7576,
      "Ġcheering": 7577,
      "Ġmelted": 7578,
      "Ġcring": 7579,
      "Ġnon": 7580,
      "Ġfemales": 7581,
      "Ġwritten": 7582,
      "Ġreson": 7583,
      "Ġlists": 7584,
      "abb": 7585,
      "Ġunrealistic": 7586,
      "Ġusage": 7587,
      "Ġperforming": 7588,
      "Ġintell": 7589,
      "Ġreplaced": 7590,
      "ĠColors": 7591,
      "Ġflickering": 7592,
      "Ġsunrise": 7593,
      "bly": 7594,
      "neath": 7595,
      "Ġmild": 7596,
      "Ġpee": 7597,
      "Ġunderneath": 7598,
      "Ġcontributes": 7599,
      "Ġpha": 7600,
      "ĠSnow": 7601,
      "Ġarches": 7602,
      "Ġworksh": 7603,
      "ĠStea": 7604,
      "Ġhistor": 7605,
      "Ġsolved": 7606,
      "Ġaccessible": 7607,
      "Ġintellig": 7608,
      "Ġunatt": 7609,
      "Ġblind": 7610,
      "Ġhairsty": 7611,
      "Ġdebates": 7612,
      "ĠRubbing": 7613,
      "Ġcringe": 7614,
      "Ġbiking": 7615,
      "Ġarom": 7616,
      "Ġleak": 7617,
      "Ġtrustworthy": 7618,
      "Ġstretched": 7619,
      "Ġstiffness": 7620,
      "Ġmanagers": 7621,
      "Ġattracts": 7622,
      "Ġterms": 7623,
      "Ġdirect": 7624,
      "ĠCheese": 7625,
      "Ġoptim": 7626,
      "ilots": 7627,
      "Ġcompleted": 7628,
      "ler": 7629,
      "ĠFru": 7630,
      "Ġstaring": 7631,
      "Ġadapts": 7632,
      "Ġdates": 7633,
      "Ġfort": 7634,
      "Ġsocc": 7635,
      "Ġsoccer": 7636,
      "gr": 7637,
      "lets": 7638,
      "uous": 7639,
      "Ġdough": 7640,
      "Ġposs": 7641,
      "Ġvict": 7642,
      "Ġwellness": 7643,
      "Ġdisappeared": 7644,
      "Ġfairy": 7645,
      "Ġautomatically": 7646,
      "Ġfolded": 7647,
      "Ġfilthy": 7648,
      "umpy": 7649,
      "Ġtrail": 7650,
      "ilty": 7651,
      "active": 7652,
      "Ġflutter": 7653,
      "Ġguilty": 7654,
      "ĠEducating": 7655,
      "Ġelectricity": 7656,
      "ĠRecognizing": 7657,
      "Ġtar": 7658,
      "aze": 7659,
      "Ġamazes": 7660,
      "Ġdurability": 7661,
      "Ġbay": 7662,
      "olves": 7663,
      "Ġuneven": 7664,
      "Ġcompleting": 7665,
      "ropri": 7666,
      "Ġpopping": 7667,
      "inkle": 7668,
      "igg": 7669,
      "Ġcheers": 7670,
      "ĠLong": 7671,
      "Ġbelongs": 7672,
      "Ġinvolving": 7673,
      "Ġpavement": 7674,
      "Ġ'": 7675,
      "alls": 7676,
      "Ġclearing": 7677,
      "Ġaddressed": 7678,
      "Ġcloset": 7679,
      "Ġdearly": 7680,
      "Ġadjusting": 7681,
      "Ġgadgets": 7682,
      "ĠOutd": 7683,
      "Ġrad": 7684,
      "Ġprofession": 7685,
      "ĠPro": 7686,
      "Ġdivis": 7687,
      "osed": 7688,
      "Ġwaits": 7689,
      "Ġacids": 7690,
      "Ġseriousness": 7691,
      "Ġdresses": 7692,
      "Ġabsence": 7693,
      "Ġinfluenced": 7694,
      "Ġsacri": 7695,
      "Ġproducing": 7696,
      "Ġreset": 7697,
      "Ġproduces": 7698,
      "Ġoccurs": 7699,
      "Ġinnovations": 7700,
      "Ġunderstandings": 7701,
      "Ġdrifting": 7702,
      "Ġpatiently": 7703,
      "Ġhesitant": 7704,
      "Ġast": 7705,
      "Ġdread": 7706,
      "Ġplots": 7707,
      "Ġspar": 7708,
      "ĠInse": 7709,
      "Ġbenches": 7710,
      "Ġcrew": 7711,
      "if": 7712,
      "ari": 7713,
      "acteria": 7714,
      "Ġuncom": 7715,
      "Ġfirm": 7716,
      "Ġirritated": 7717,
      "Ġphotograph": 7718,
      "Ġdisposal": 7719,
      "Ġrabb": 7720,
      "Ġhomework": 7721,
      "Ġunsatisf": 7722,
      "Ġisolating": 7723,
      "Ġten": 7724,
      "Ġslows": 7725,
      "Ġclarify": 7726,
      "Ġcaptivating": 7727,
      "ĠOutdoor": 7728,
      "rict": 7729,
      "Ġcycling": 7730,
      "Ġbacteria": 7731,
      "Ġund": 7732,
      "Ġfro": 7733,
      "Ġswitch": 7734,
      "Ġfuller": 7735,
      "Ġvegg": 7736,
      "ĠInsects": 7737,
      "voking": 7738,
      "Ġcollected": 7739,
      "Ġnotebook": 7740,
      "ĠTraveling": 7741,
      "connected": 7742,
      "gar": 7743,
      "Ġled": 7744,
      "Ġideal": 7745,
      "Ġsecretaries": 7746,
      "Ġpoems": 7747,
      "Ġexplaining": 7748,
      "Ġenthusi": 7749,
      "Ġverses": 7750,
      "Ġtomato": 7751,
      "provoking": 7752,
      "Ġsnowflakes": 7753,
      "ators": 7754,
      "ĠAlex": 7755,
      "ĠCutting": 7756,
      "Ġcatchy": 7757,
      "Ġpillow": 7758,
      "rs": 7759,
      "Ġchains": 7760,
      "Ġgloomier": 7761,
      "Ġdrying": 7762,
      "Ġsails": 7763,
      "ĠNews": 7764,
      "aign": 7765,
      "ĠMan": 7766,
      "Ġinterconnected": 7767,
      "Ġheals": 7768,
      "Ġshowc": 7769,
      "ĠCra": 7770,
      "ology": 7771,
      "Ġpreventing": 7772,
      "reak": 7773,
      "ĠBo": 7774,
      "Ġmonster": 7775,
      "Ġthroats": 7776,
      "Ġbarbe": 7777,
      "Ġlamp": 7778,
      "Ġrevis": 7779,
      "Ġalign": 7780,
      "Ġsuns": 7781,
      "Ġrealities": 7782,
      "Ġgirls": 7783,
      "Ġfloods": 7784,
      "Ġsnowman": 7785,
      "orre": 7786,
      "ars": 7787,
      "Ġspee": 7788,
      "ĠLately": 7789,
      "shm": 7790,
      "Ġgloominess": 7791,
      "Ġrested": 7792,
      "Ġprotects": 7793,
      "Ġspoken": 7794,
      "ĠShouldn": 7795,
      "ĠComp": 7796,
      "Ġreveals": 7797,
      "Ġworkouts": 7798,
      "Ġtootha": 7799,
      "ĠFr": 7800,
      "Ġrestrict": 7801,
      "Ġfactories": 7802,
      "Ġbursting": 7803,
      "ĠGardens": 7804,
      "bee": 7805,
      "Ġfees": 7806,
      "lling": 7807,
      "Ġgrumpy": 7808,
      "Ġblocked": 7809,
      "Ġrubber": 7810,
      "Ġcampaign": 7811,
      "Ġtor": 7812,
      "ĠNight": 7813,
      "Ġharvest": 7814,
      "cue": 7815,
      "Ġentrance": 7816,
      "Ġweaker": 7817,
      "Ġdivide": 7818,
      "bble": 7819,
      "Ġcave": 7820,
      "berry": 7821,
      "Ġefficiency": 7822,
      "Ġperiod": 7823,
      "Ġspell": 7824,
      "Ġmaj": 7825,
      "Ġspiders": 7826,
      "ĠApp": 7827,
      "ilting": 7828,
      "Ġrainstorm": 7829,
      "Ġexhibit": 7830,
      "Ġinit": 7831,
      "Ġcontinuous": 7832,
      "ĠUnfortun": 7833,
      "Ġtalented": 7834,
      "Ġcontainers": 7835,
      "Ġbumps": 7836,
      "ĠSilk": 7837,
      "Ġdwell": 7838,
      "ĠRelaxing": 7839,
      "Ġdances": 7840,
      "cture": 7841,
      "Ġdishon": 7842,
      "Ġadvocate": 7843,
      "Ġthor": 7844,
      "Ġrelying": 7845,
      "Ġoccurring": 7846,
      "Ġtoughest": 7847,
      "sive": 7848,
      "Ġsat": 7849,
      "isbee": 7850,
      "Ġaggress": 7851,
      "Ġrubs": 7852,
      "Ġtroublesome": 7853,
      "Ġmelody": 7854,
      "Ġreplacement": 7855,
      "creen": 7856,
      "Ġunenergetic": 7857,
      "Ġembarrassing": 7858,
      "Ġtheirs": 7859,
      "Ġappetizing": 7860,
      "Ġaccessories": 7861,
      "Ġreassuring": 7862,
      "Ġfaded": 7863,
      "Ġcomedies": 7864,
      "ĠManaging": 7865,
      "Ġnone": 7866,
      "allows": 7867,
      "Ġunresp": 7868,
      "ossing": 7869,
      "Ġpasted": 7870,
      "Ġmixes": 7871,
      "Ġbroad": 7872,
      "Ġirresponsible": 7873,
      "Ġneckl": 7874,
      "Ġtorn": 7875,
      "Ġunrespons": 7876,
      "Ġunsp": 7877,
      "ĠHallow": 7878,
      "ĠPlus": 7879,
      "ĠHalloween": 7880,
      "Ġlu": 7881,
      "Ġliking": 7882,
      "ĠThen": 7883,
      "Ġgeneration": 7884,
      "Ġlocations": 7885,
      "Ġchir": 7886,
      "ĠThings": 7887,
      "Ġmarshm": 7888,
      "Ġhonking": 7889,
      "Ġdigest": 7890,
      "Ġinterrupted": 7891,
      "ixt": 7892,
      "Ġnour": 7893,
      "Ġsmo": 7894,
      "Ġartworks": 7895,
      "Ġsaved": 7896,
      "Ġhesitate": 7897,
      "Ġsacrif": 7898,
      "Ġunh": 7899,
      "Ġarises": 7900,
      "ĠRiding": 7901,
      "Ġdistress": 7902,
      "Ġselections": 7903,
      "Ġveggies": 7904,
      "Ġunspo": 7905,
      "arily": 7906,
      "ĠTurning": 7907,
      "ĠCare": 7908,
      "Ġmusicians": 7909,
      "oof": 7910,
      "Ġcollections": 7911,
      "Ġwallet": 7912,
      "ĠAutumn": 7913,
      "Ġtoothache": 7914,
      "Ġunresponsive": 7915,
      "ource": 7916,
      "Ġlightly": 7917,
      "Ġresource": 7918,
      "Ġbland": 7919,
      "Ġsorting": 7920,
      "Ġthorough": 7921,
      "iences": 7922,
      "Ġwilt": 7923,
      "Ġnoted": 7924,
      "Ġfrisbee": 7925,
      "Ġwraps": 7926,
      "ĠGiving": 7927,
      "Ġequality": 7928,
      "Ġbatter": 7929,
      "Ġbuyers": 7930,
      "Ġdisrupted": 7931,
      "Ġdampen": 7932,
      "Ġprofessionals": 7933,
      "Ġge": 7934,
      "Ġfactory": 7935,
      "Ġloo": 7936,
      "Ġscrap": 7937,
      "Ġgrazing": 7938,
      "Ġstepped": 7939,
      "Ġdevice": 7940,
      "ĠUnfortunately": 7941,
      "looking": 7942,
      "Ġrespects": 7943,
      "Ġconvenient": 7944,
      "Ġcocoa": 7945,
      "Ġescaping": 7946,
      "Ġproced": 7947,
      "ĠPoor": 7948,
      "ĠBr": 7949,
      "Ġadaptable": 7950,
      "Ġtensions": 7951,
      "Ġgalleries": 7952,
      "Ġaccomplish": 7953,
      "Ġperception": 7954,
      "pow": 7955,
      "int": 7956,
      "Ġharb": 7957,
      "Ġduty": 7958,
      "Ġhundred": 7959,
      "Ġsunscreen": 7960,
      "Ġwebs": 7961,
      "ashy": 7962,
      "Ġproactive": 7963,
      "Ġrelive": 7964,
      "Ġdouble": 7965,
      "Ġrounding": 7966,
      "Ġtit": 7967,
      "ason": 7968,
      "Ġscra": 7969,
      "ĠOff": 7970,
      "Ġattractive": 7971,
      "Ġunreason": 7972,
      "ĠClouds": 7973,
      "Ġkissing": 7974,
      "oved": 7975,
      "Ġendure": 7976,
      "Ġgathers": 7977,
      "Ġviolently": 7978,
      "Ġdullness": 7979,
      "Ġpromotes": 7980,
      "Ġdivisions": 7981,
      "Ġwilting": 7982,
      "Ġpilots": 7983,
      "earable": 7984,
      "ĠDig": 7985,
      "ĠCal": 7986,
      "Ġslither": 7987,
      "Ġadvanced": 7988,
      "Ġcools": 7989,
      "Ġacknowledged": 7990,
      "Ġlink": 7991,
      "Ġincl": 7992,
      "Ġtidying": 7993,
      "Ġriverb": 7994,
      "Ġprevious": 7995,
      "ĠReaching": 7996,
      "Ġmarshmallows": 7997,
      "cessed": 7998,
      "ĠGold": 7999
    },
    "merges": [
      "Ġ t",
      "i n",
      "Ġ a",
      "Ġ s",
      "S T",
      "I N",
      "IN ST",
      "Ġ [",
      "h e",
      "Ġ w",
      "o u",
      "Ġ f",
      "in g",
      "e s",
      "Ġ c",
      "n d",
      "r e",
      "Ġ i",
      "h a",
      "Ġ m",
      "e r",
      "Ġ b",
      "Ġ I",
      "e e",
      "Ġt o",
      "a n",
      "Ġ[ /",
      "Ġt he",
      "o r",
      "Ġ d",
      "Ġ l",
      "Ġa nd",
      "o n",
      "Ġf ee",
      "Ġfee l",
      "e n",
      "l l",
      "Ġ p",
      "i t",
      "a y",
      "Ġc an",
      "Ġt h",
      "o m",
      "e a",
      "Ġ u",
      "ha t",
      "e t",
      "Ġi s",
      "Ġi t",
      "Ġ n",
      "l e",
      "Ġ o",
      "Ġ y",
      "s t",
      "Ġy ou",
      "a t",
      "Ġ in",
      "o w",
      "Ġ e",
      "k e",
      "Ġ ha",
      "i s",
      "ou t",
      "g h",
      "Ġ he",
      "Ġ h",
      "Ġ g",
      "Ġl i",
      "v er",
      "Ġb e",
      "Ġw e",
      "v e",
      "a l",
      "Ġ re",
      "Ġm a",
      "s e",
      "gh t",
      "ou r",
      "Ġo f",
      "i c",
      "i m",
      "l y",
      "a r",
      "o p",
      "Ġt hat",
      "c t",
      "Ġ Y",
      "Ġ our",
      "u t",
      "l d",
      "o o",
      "Ġa b",
      "ĠI t",
      "ing s",
      "Ġab out",
      "ĠY es",
      "Ġf or",
      "o t",
      "Ġs t",
      "a ll",
      "Ġw he",
      "Ġd o",
      "Ġwhe n",
      "Ġs om",
      "Ġs u",
      "Ġ T",
      "p p",
      "l p",
      "Ġhe lp",
      "in d",
      "Ġu s",
      "ver y",
      "he r",
      "es s",
      "in k",
      "nd er",
      "r i",
      "t er",
      "Ġth ink",
      "u l",
      "a d",
      "Ġs ee",
      "e d",
      "i on",
      "Ġli ke",
      "o re",
      "Ġs o",
      "o y",
      "ou ld",
      "c h",
      "Ġh ow",
      "Ġ j",
      "en t",
      "i r",
      "all y",
      "u st",
      "ou nd",
      "Ġ on",
      "ea r",
      "it h",
      "Ġw ith",
      "f ul",
      "i d",
      "c e",
      "ĠT hat",
      "Ġn ot",
      "an t",
      "or t",
      "f e",
      "e op",
      "eop le",
      "im es",
      "Ġm ore",
      "oo d",
      "Ġp eople",
      "ay s",
      "p e",
      "Ġha pp",
      "Ġ en",
      "n g",
      "Ġe very",
      "Ġu n",
      "Ġm e",
      "Ġb ut",
      "Ġma ke",
      "Ġma k",
      "Ġm y",
      "r ing",
      "Ġsom et",
      "Ġ D",
      "a nd",
      "Ġ k",
      "t her",
      "Ġt r",
      "Ġa re",
      "d ay",
      "Ġ H",
      "Ġw or",
      "Ġ r",
      "Ġb et",
      "Ġu nder",
      "Ġth ings",
      "c i",
      "i ll",
      "h ing",
      "ĠD o",
      "q u",
      "m p",
      "Ġf r",
      "st and",
      "Ġbet ter",
      "Ġunder stand",
      "Ġp l",
      "Ġth is",
      "on e",
      "Ġc ha",
      "Ġs h",
      "Ġc om",
      "Ġto day",
      "re at",
      "Ġre ally",
      "Ġs ound",
      "j oy",
      "Ġen joy",
      "ri ght",
      "Ġmak es",
      "Ġf ind",
      "Ġa l",
      "k ing",
      "Ġfeel ings",
      "Ġi mp",
      "op e",
      "Ġthe y",
      "Ġsom e",
      "Ġ qu",
      "it e",
      "Ġn e",
      "Ġe x",
      "Ġ W",
      "i ght",
      "Ġsound s",
      "b le",
      "Ġa n",
      "e ll",
      "o ve",
      "o l",
      "Ġh ope",
      "i es",
      "Ġg ood",
      "Ġha ve",
      "an y",
      "Ġsee m",
      "Ġs ha",
      "im e",
      "ion s",
      "a in",
      "Ġs ad",
      "a s",
      "Ġw o",
      "Ġwo nder",
      "u re",
      "Ġsomet imes",
      "Ġw h",
      "Ġs m",
      "u n",
      "Ġt ime",
      "ic e",
      "t ing",
      "Ġ out",
      "Ġha r",
      "Ġyou r",
      "Ġ or",
      "Ġj ust",
      "pe ci",
      "Ġcha ng",
      "Ġd ay",
      "Ġw ill",
      "g et",
      "Ġw ay",
      "Ġd i",
      "Ġe v",
      "a u",
      "Ġp r",
      "ent s",
      "Ġsu r",
      "p r",
      "a re",
      "Ġd is",
      "Ġf ear",
      "Ġs p",
      "Ġj oy",
      "ee p",
      "Ġhar d",
      "Ġc on",
      "Ġa t",
      "id e",
      "ea s",
      "Ġ very",
      "Ġthe ir",
      "Ġfeel ing",
      "Ġs a",
      "Ġo ther",
      "u s",
      "Ġimp ort",
      "ell o",
      "ĠH ello",
      "Ġa g",
      "Ġt al",
      "f fe",
      "a c",
      "t en",
      "Ġi f",
      "Ġc ould",
      "r y",
      "on g",
      "u r",
      "Ġfeel s",
      "get her",
      "o se",
      "Ġimport ant",
      "o s",
      "Ġhapp y",
      "Ġst r",
      "Ġt a",
      "Ġev en",
      "Ġa m",
      "pr is",
      "n ess",
      "Ġsur pris",
      "Ġto gether",
      "Ġof ten",
      "Ġm any",
      "e ly",
      "Ġ S",
      "Ġm om",
      "Ġl ove",
      "Ġth ou",
      "Ġthe re",
      "Ġa ll",
      "Ġ es",
      "Ġb right",
      "g e",
      "au se",
      "Ġevery one",
      "Ġa r",
      "Ġne w",
      "Ġw hat",
      "Ġbe c",
      "Ġa s",
      "a v",
      "peci ally",
      "Ġes pecially",
      "is h",
      "Ġthou ght",
      "Ġsh ould",
      "Ġn ice",
      "Ġu p",
      "Ġd ays",
      "s ide",
      "i ve",
      "Ġb it",
      "Ġdo es",
      "t h",
      "v es",
      "oo k",
      "ea d",
      "re e",
      "Ġb ring",
      "Ġk eep",
      "Ġw ould",
      "Ġc l",
      "ee d",
      "t hing",
      "Ġqu ite",
      "w ays",
      "Ġmom ents",
      "Ġal ways",
      "re n",
      "Ġ A",
      "ea ther",
      "Ġw ant",
      "ou gh",
      "a ble",
      "Ġc reat",
      "ar d",
      "Ġchang e",
      "Ġsu n",
      "Ġ M",
      "Ġbec ause",
      "Ġsm all",
      "Ġg o",
      "Ġhelp s",
      "Ġ ea",
      "Ġw eather",
      "Ġi d",
      "i e",
      "ar t",
      "Ġthe se",
      "Ġm ight",
      "Ġseem s",
      "Ġm u",
      "Ġf un",
      "Ġfr om",
      "Ġsu ch",
      "Ġthe m",
      "f ort",
      "i l",
      "le ct",
      "a ct",
      "ic k",
      "Ġevery thing",
      "r at",
      "Ġto o",
      "Ġsomet hing",
      "Ġa ct",
      "Ġth ose",
      "m e",
      "Ġmu ch",
      "pe ct",
      "Ġli fe",
      "es t",
      "u e",
      "Ġtal k",
      "Ġb ad",
      "f lect",
      "ar k",
      "Ġn at",
      "a st",
      "Ġtr y",
      "Ġs c",
      "a ce",
      "er s",
      "Ġw ish",
      "p l",
      "e nd",
      "Ġother s",
      "ffe ren",
      "t le",
      "Ġpr o",
      "Ġl it",
      "Ġdi fferen",
      "Ġag ree",
      "Ġout side",
      "Ġar ound",
      "Ġg reat",
      "Ġb r",
      "Ġa ng",
      "i g",
      "le an",
      "i le",
      "Ġd u",
      "or ies",
      "e ct",
      "at e",
      "Ġpl an",
      "ust rat",
      "Ġfr ustrat",
      "Ġo ver",
      "Ġlit tle",
      "b s",
      "Ġn eed",
      "Ġp os",
      "Ġc are",
      "ha n",
      "Ġd e",
      "ĠW hat",
      "Ġc h",
      "f t",
      "in ess",
      "Ġsha re",
      "n ow",
      "ri end",
      "Ġ v",
      "' s",
      "o c",
      "Ġg r",
      "or m",
      "Ġb ea",
      "Ġf riend",
      "Ġdu ring",
      "at ion",
      "Ġl ook",
      "ol ut",
      "Ġan y",
      "olut ely",
      "Ġt imes",
      "ou s",
      "bs olutely",
      "ĠA bsolutely",
      "Ġc lean",
      "Ġw as",
      "it y",
      "h y",
      "Ġst ay",
      "er i",
      "Ġsurpris ing",
      "Ġnat ure",
      "v ing",
      "Ġbea ut",
      "Ġhapp en",
      "m ent",
      "Ġhe av",
      "Ġwonder ful",
      "Ġl ess",
      "ar m",
      "Ġg et",
      "b e",
      "it s",
      "ĠS om",
      "' t",
      "g ust",
      "Ġdis gust",
      "Ġcreat e",
      "Ġa w",
      "Ġid ea",
      "Ġw ays",
      "Ġe ver",
      "Ġn ow",
      "Ġfrustrat ing",
      "Ġli ght",
      "or s",
      "Ġin ter",
      "Ġf l",
      "Ġmak ing",
      "Ġthought s",
      "Ġheav y",
      "Ġ right",
      "it ing",
      "Ġc o",
      "Ġwor k",
      "ac k",
      "ear n",
      "i v",
      "Ġb y",
      "ĠW hy",
      "Ġsad ness",
      "Ġhapp iness",
      "Ġf ood",
      "Ġlove ly",
      "a m",
      "Ġk now",
      "i er",
      "Ġw arm",
      "es ting",
      "l ie",
      "Ġang ry",
      "ĠSom et",
      "ĠSomet imes",
      "Ġb ig",
      "m b",
      "Ġa pp",
      "ay be",
      "Ġpos it",
      "Ġl earn",
      "flect ing",
      "Ġcom m",
      "Ġa f",
      "Ġsha ring",
      "Ġea ch",
      "Ġwh ile",
      "Ġm ind",
      "Ġl ead",
      "Ġfriend s",
      "Ġta ke",
      "Ġhe al",
      "Ġt ough",
      "Ġbe lie",
      "Ġso on",
      "i ly",
      "f f",
      "Ġc he",
      "in e",
      "Ġ F",
      "d s",
      "Ġinter esting",
      "Ġex p",
      "ĠH ow",
      "om e",
      "Ġdifferen t",
      "Ġcom fort",
      "Ġw at",
      "Ġs im",
      "m s",
      "Ġposit ive",
      "Ġ E",
      "s et",
      "Ġag ain",
      "ffe ct",
      "Ġt han",
      "Ġstr ong",
      "Ġk ind",
      "ac es",
      "Ġw al",
      "Ġbelie ve",
      "mb er",
      "Ġli ves",
      "an ge",
      "Ġc al",
      "Ġa d",
      "Ġcal m",
      "n ect",
      "p s",
      "Ġin st",
      "Ġme m",
      "me mber",
      "p le",
      "Ġr es",
      "Ġli ft",
      "Ġchang es",
      "ul t",
      "w ard",
      "Ġcon nect",
      "Ġsa fe",
      "Ġf ut",
      "Ġbr ings",
      "Ġwor ld",
      "Ġre l",
      "en ce",
      "Ġwith out",
      "Ġm o",
      "Ġexp eri",
      "Ġfut ure",
      "ar y",
      "Ġ R",
      "Ġbeaut i",
      "are d",
      "se l",
      "ow n",
      "â Ģ",
      "âĢ Ļ",
      "a ge",
      "at ions",
      "Ġd ark",
      "Ġsp ir",
      "Ġheal th",
      "Ġs it",
      "s o",
      "it ies",
      "Ġal so",
      "ea l",
      "c es",
      "a g",
      "Ġfear s",
      "Ġsu pp",
      "Ġtr ue",
      "Ġf oc",
      "Ġinst ead",
      "Ġha s",
      "Ġaf ter",
      "ĠT he",
      "Ġd id",
      "Ġbeauti ful",
      "Ġm ood",
      "n y",
      "Ġqu ick",
      "d e",
      "ĠM any",
      "Ġre member",
      "Ġd own",
      "ic es",
      "Ġmem ories",
      "Ġsim ple",
      "Ġre m",
      "Ġtal king",
      "Ġbe ing",
      "er t",
      "Ġs peci",
      "Ġstr ange",
      "ea ce",
      "Ġdis c",
      "Ġp eace",
      "u ll",
      "Ġwh y",
      "Ġaw ay",
      "Ġspir its",
      "Ġwe ll",
      "Ġun c",
      "Ġs k",
      "ff ic",
      "i z",
      "o om",
      "Ġhe ar",
      "re ci",
      "Ġ eas",
      "al s",
      "Ġg u",
      "Ġo p",
      "Ġfoc us",
      "Ġspeci al",
      "Ġl at",
      "w he",
      "Ġch o",
      "ic h",
      "Ġn o",
      "a ve",
      "ĠE x",
      "Ġup set",
      "Ġc ol",
      "Ġgr ow",
      "Ġsc ared",
      "Ġdisgust ed",
      "Ġd r",
      "Ġbright er",
      "Ġl ong",
      "act ly",
      "t o",
      "ind ing",
      "Ġsupp ort",
      "ffic ult",
      "Ġdi fficult",
      "i st",
      "ĠR e",
      "Ġb l",
      "Ġpl ay",
      "Ġex pect",
      "is e",
      "Ġwh ich",
      "Ġapp reci",
      "a x",
      "i ld",
      "ĠEx actly",
      "re d",
      "Ġsit u",
      "Ġex c",
      "Ġwal k",
      "Ġg l",
      "Ġwor ry",
      "Ġp ark",
      "Ġa ffect",
      "Ġst ill",
      "es h",
      "oo king",
      "Ġpro ble",
      "Ġquick ly",
      "Ġimp r",
      "n ot",
      "Ġsh ow",
      "Ġwor ri",
      "Ġu se",
      "Ġhe art",
      "s i",
      "Ġcl ear",
      "ĠF inding",
      "Ġn orm",
      "Ġrel ax",
      "Ġrem ind",
      "Ġre ad",
      "an ce",
      "Ġs e",
      "Ġst ories",
      "Ġnorm al",
      "Ġcomm un",
      "en ing",
      "Ġappreci ate",
      "ur n",
      "Ġunderstand ing",
      "Ġsa f",
      "Ġtr u",
      "Ġ C",
      "Ġb u",
      "ch ing",
      "Ġfr esh",
      "Ġtru ly",
      "Ġr ain",
      "av or",
      "o in",
      "Ġin to",
      "Ġma de",
      "Ġl et",
      "Ġact iv",
      "Ġs en",
      "Ġfear ful",
      "Ġs l",
      "x t",
      "Ġsun ny",
      "Ġth r",
      "ll en",
      "ee n",
      "Ġcha llen",
      "d u",
      "Ġw r",
      "ĠM aybe",
      "a pp",
      "Ġid eas",
      "Ġw ee",
      "Ġsc ary",
      "Ġa ir",
      "Ġst art",
      "Ġn ight",
      "t y",
      "Ġb ot",
      "Ġcan not",
      "Ġon e",
      "Ġpl aces",
      "Ġsen se",
      "a k",
      "Ġcho ices",
      "Ġcom e",
      "ĠRe flecting",
      "Ġin d",
      "Ġf avor",
      "Ġd on",
      "Ġen v",
      "ir on",
      "Ġimpr ove",
      "Ġenv iron",
      "Ġgu ess",
      "Ġre flect",
      "Ġm ess",
      "Ġli st",
      "Ġdifferen ce",
      "Ġne xt",
      "Ġthink ing",
      "c k",
      "Ġfavor ite",
      "Ġche er",
      "i x",
      "Ġta st",
      "Ġact ions",
      "Ġchallen g",
      "Ġb ack",
      "Ġsome one",
      "Ġt ea",
      "Ġin side",
      "Ġha ving",
      "ert ain",
      "Ġenjoy able",
      "a z",
      "Ġun e",
      "l ic",
      "Ġenviron ment",
      "Ġb o",
      "pect ed",
      "e l",
      "Ġc ar",
      "et y",
      "Ġfl ow",
      "i ous",
      "Ġune x",
      "Ġm at",
      "Ġcom pl",
      "Ġpl ace",
      "Ġl ast",
      "Ġp re",
      "f in",
      "Ġproble ms",
      "k ay",
      "Ġactiv ities",
      "Ġd es",
      "w n",
      "Ġo kay",
      "ite ly",
      "f ore",
      "ou d",
      "Ġbe fore",
      "pe nd",
      "fin itely",
      "Ġst e",
      "Ġre al",
      "Ġex pl",
      "Ġlat ely",
      "Ġam az",
      "Ġ L",
      "Ġl ea",
      "Ġof f",
      "m ot",
      "Ġfind ing",
      "Ġh o",
      "Ġc r",
      "s h",
      "Ġunex pected",
      "ur es",
      "Ġre flecting",
      "Ġsurpris ed",
      "Ġsp ace",
      "en ces",
      "Ġw ind",
      "n ing",
      "eas ant",
      "Ġis s",
      "Ġso l",
      "Ġm aybe",
      "Ġm ay",
      "Ġhapp ier",
      "ĠY ou",
      "Ġis n",
      "Ġan im",
      "sel ves",
      "Ġit s",
      "l es",
      "Ġin v",
      "Ġs w",
      "Ġthr ough",
      "Ġal one",
      "si ble",
      "l ing",
      "ee t",
      "Ġhe re",
      "Ġamaz ing",
      "Ġp er",
      "Ġnew s",
      "ĠH ave",
      "Ġcol ors",
      "Ġb een",
      "Ġl o",
      "Ġ P",
      "m ing",
      "Ġsa me",
      "Ġm is",
      "Ġmind s",
      "Ġfor ward",
      "Ġst orm",
      "g g",
      "Ġbright en",
      "Ġe nd",
      "han k",
      "ĠT hank",
      "Ġd ir",
      "Ġw a",
      "Ġexperi ences",
      "Ġworri es",
      "Ġb re",
      "Ġcompl et",
      "as s",
      "Ġco ld",
      "sh ine",
      "a p",
      "Ġf ace",
      "Ġplan s",
      "Ġf am",
      "u es",
      "Ġd eep",
      "Ġang er",
      "Ġenjoy ing",
      "Ġflow ers",
      "Ġo ld",
      "Ġjoy ful",
      "Ġunderstand able",
      "Ġe mot",
      "ver s",
      "Ġwh o",
      "Ġgo ing",
      "Ġbeaut y",
      "Ġsa w",
      "Ġt urn",
      "Ġcheer ful",
      "Ġre c",
      "Ġse c",
      "Ġd a",
      "Ġkind ness",
      "Ġsun shine",
      "Ġanim als",
      "he ad",
      "Ġop en",
      "eas y",
      "a ir",
      "whe l",
      "Ġover whel",
      "Ġun easy",
      "i et",
      "Ġsk y",
      "Ġg ard",
      "or y",
      "he s",
      "ull y",
      "s ing",
      "Ġa head",
      "Ġha d",
      "Ġat t",
      "Ġwat er",
      "ic al",
      "Ġexperi ence",
      "iz e",
      "r ow",
      "Ġqu iet",
      "Ġbu ild",
      "Ġlearn ing",
      "Ġp at",
      "Ġbot h",
      "oo l",
      "ĠT h",
      "Ġhealth y",
      "Ġhappen ing",
      "Ġsitu ation",
      "Ġemot ions",
      "Ġm eal",
      "Ġdisc us",
      "k s",
      "f fort",
      "Ġe ffort",
      "Ġo wn",
      "Ġt re",
      "Ġm us",
      "Ġl ot",
      "ke d",
      "Ġcon f",
      "Ġlook s",
      "o or",
      "i gh",
      "Ġta king",
      "i re",
      "Ġpl ant",
      "an g",
      "Ġsu re",
      "Ġour selves",
      "Ġun k",
      "Ġgl oom",
      "Ġda ily",
      "Ġexc iting",
      "Ġst re",
      "Ġp ic",
      "Ġm an",
      "Ġiss ues",
      "Ġtry ing",
      "Ġea se",
      "Ġun pl",
      "ĠW e",
      "t s",
      "c ome",
      "Ġc ause",
      "Ġjoy s",
      "Ġne ver",
      "n e",
      "Ġmom ent",
      "Ġupset ting",
      "Ġnot ic",
      "Ġheart s",
      "Ġcon t",
      "c ess",
      "Ġb us",
      "Ġl au",
      "u ally",
      "Ġcomm on",
      "Ġdir ty",
      "Ġgard en",
      "Ġha nd",
      "Ġa v",
      "Ġwr ong",
      "Ġlight en",
      "Ġgloom y",
      "a king",
      "Ġv al",
      "r ound",
      "s p",
      "Ġs pend",
      "g y",
      "Ġp ast",
      "Ġb est",
      "Ġsaf ety",
      "Ġp ain",
      "Ġy ear",
      "Ġb ook",
      "Ġsm ell",
      "Ġcomplet ely",
      "f ully",
      "Ġp art",
      "Ġp u",
      "g n",
      "Ġa c",
      "Ġsh in",
      "sel f",
      "Ġde c",
      "whe re",
      "Ġt ri",
      "ow s",
      "Ġmus ic",
      "Ġbre ak",
      "a ke",
      "Ġv is",
      "Ġhe ard",
      "Ġwee k",
      "Ġar t",
      "Ġnotic ed",
      "Ġcom p",
      "Ġhelp ful",
      "Ġh ome",
      "l ight",
      "Ġn ear",
      "Ġcon vers",
      "Ġl oud",
      "m or",
      "o ors",
      "Ġm ove",
      "oo se",
      "Ġdisgust ing",
      "ha ps",
      "ou n",
      "Ġf right",
      "j ect",
      "Ġf ix",
      "Ġs n",
      "Ġdoes n",
      "Ġcommun ity",
      "Ġsur round",
      "d en",
      "Ġdr ink",
      "Ġwe l",
      "Ġkeep ing",
      "as h",
      "est ion",
      "ou ds",
      "Ġt i",
      "Ġeas ier",
      "Ġan n",
      "Ġres pect",
      "Ġsm ile",
      "Ġres p",
      "Ġho ld",
      "Ġshow s",
      "Ġcl ouds",
      "Ġfam ily",
      "Ġann oy",
      "Ġoverwhel ming",
      "Ġp ers",
      "om fort",
      "Ġout d",
      "Ġ B",
      "ur al",
      "Ġwor se",
      "ol ve",
      "Ġsurpris es",
      "Ġun f",
      "o id",
      "i p",
      "Ġr u",
      "pr ess",
      "r a",
      "Ġunpl easant",
      "Ġen er",
      "ac ing",
      "Ġav oid",
      "Ġfor get",
      "o ver",
      "Ġpos sible",
      "Ġm ust",
      "ig n",
      "m ents",
      "Ġexpl ore",
      "Ġl ooking",
      "Ġad v",
      "Ġstr ess",
      "Ġdis app",
      "Ġnat ural",
      "Ġlo st",
      "Ġy es",
      "Ġex press",
      "Ġc ooking",
      "Ġsitu ations",
      "Ġchalleng es",
      "Ġstay ing",
      "Ġus ing",
      "Ġr o",
      "Ġw ast",
      "Ġcon s",
      "Ġdi st",
      "Ġsol ut",
      "at ing",
      "k es",
      "er v",
      "on s",
      "Ġmo st",
      "Ġsl ow",
      "ter day",
      "Ġde finitely",
      "Ġan x",
      "Ġw ise",
      "Ġst ick",
      "a il",
      "Ġyes terday",
      "Ġad d",
      "Ġsaf er",
      "Ġsurpris e",
      "se d",
      "Ġtre es",
      "Ġen c",
      "Ġwat ching",
      "Ġevery where",
      "Ġl e",
      "Ġcon c",
      "Ġf ull",
      "Ġt as",
      "Ġsp aces",
      "Ġe l",
      "Ġinv olve",
      "Ġlist en",
      "Ġdiscus s",
      "l i",
      "Ġstr u",
      "Ġunc ertain",
      "Ġwel come",
      "Ġme an",
      "Ġst u",
      "Ġresp on",
      "Ġi m",
      "Ġun w",
      "re ad",
      "Ġe ffect",
      "Ġto mor",
      "Ġtomor row",
      "du ce",
      "d ge",
      "Ġread ing",
      "Ġwhe re",
      "ĠTh ose",
      "Ġev ents",
      "Ġplant s",
      "ĠS t",
      "ha ng",
      "a b",
      "Ġener gy",
      "Ġcol or",
      "Ġpeace ful",
      "Ġsee ing",
      "Ġh ur",
      "Ġget s",
      "Ġinvolve d",
      "Ġsurround ings",
      "our age",
      "Ġtr ou",
      "e ms",
      "Ġdisc over",
      "in ce",
      "Ġb ir",
      "Ġdisapp oin",
      "Ġi gn",
      "Ġs ince",
      "Ġind eed",
      "Ġannoy ing",
      "Ġ ri",
      "Ġfright ening",
      "Ġlight er",
      "Ġj u",
      "Ġsw eet",
      "Ġin sp",
      "Ġwor ds",
      "Ġt reat",
      "Ġunf air",
      "Ġanx ious",
      "f orm",
      "Ġplay ing",
      "Ġimp act",
      "Ġtast e",
      "Ġde lic",
      "Ġto p",
      "r es",
      "Ġpr op",
      "Ġany one",
      "Ġs ay",
      "Ġaw are",
      "Ġwe re",
      "Ġunc omfort",
      "eri ous",
      "Ġha b",
      "Ġbus y",
      "al king",
      "at her",
      "Ġj our",
      "Ġreal ize",
      "et s",
      "ĠD id",
      "Ġim ag",
      "Ġwa iting",
      "Ġnot ice",
      "Ġf acing",
      "Ġwast e",
      "fe ct",
      "a me",
      "ent ion",
      "Ġc ertain",
      "is es",
      "l ess",
      "Ġwat ch",
      "Ġc hat",
      "Ġthan k",
      "Ġbec ome",
      "Ġd ang",
      "Ġf el",
      "Ġfel t",
      "Ġre as",
      "Ġwarm th",
      "ne y",
      "Ġb al",
      "Ġd eal",
      "Ġuncomfort able",
      "Ġs he",
      "Ġjour ney",
      "Ġwal king",
      "a ch",
      "Ġchalleng ing",
      "Ġdo ing",
      "Ġmat ter",
      "Ġp ow",
      "or ing",
      "ie w",
      "ke nd",
      "Ġper fect",
      "Ġwee kend",
      "iv ity",
      "Ġti red",
      "Ġeas ily",
      "Ġqu estion",
      "a w",
      "Ġy et",
      "he d",
      "Ġste ps",
      "Ġon es",
      "Ġpro ject",
      "ra id",
      "os s",
      "Ġta kes",
      "m m",
      "Ġhope ful",
      "Ġget ting",
      "Ġlat er",
[...]
